{
  "version": "1.0",
  "truncation": null,
  "padding": null,
  "added_tokens": [
    {
      "id": 0,
      "content": "[PAD]",
      "single_word": false,
      "lstrip": false,
      "rstrip": false,
      "normalized": false,
      "special": true
    },
    {
      "id": 1,
      "content": "[UNK]",
      "single_word": false,
      "lstrip": false,
      "rstrip": false,
      "normalized": false,
      "special": true
    },
    {
      "id": 2,
      "content": "[SOS]",
      "single_word": false,
      "lstrip": false,
      "rstrip": false,
      "normalized": false,
      "special": true
    },
    {
      "id": 3,
      "content": "[EOS]",
      "single_word": false,
      "lstrip": false,
      "rstrip": false,
      "normalized": false,
      "special": true
    }
  ],
  "normalizer": null,
  "pre_tokenizer": {
    "type": "Whitespace"
  },
  "post_processor": null,
  "decoder": null,
  "model": {
    "type": "BPE",
    "dropout": null,
    "unk_token": "[UNK]",
    "continuing_subword_prefix": null,
    "end_of_word_suffix": null,
    "fuse_unk": false,
    "byte_fallback": false,
    "ignore_merges": false,
    "vocab": {
      "[PAD]": 0,
      "[UNK]": 1,
      "[SOS]": 2,
      "[EOS]": 3,
      "!": 4,
      "\"": 5,
      "#": 6,
      "$": 7,
      "%": 8,
      "&": 9,
      "'": 10,
      "(": 11,
      ")": 12,
      "*": 13,
      "+": 14,
      ",": 15,
      "-": 16,
      ".": 17,
      "/": 18,
      "0": 19,
      "1": 20,
      "2": 21,
      "3": 22,
      "4": 23,
      "5": 24,
      "6": 25,
      "7": 26,
      "8": 27,
      "9": 28,
      ":": 29,
      ";": 30,
      "=": 31,
      "?": 32,
      "@": 33,
      "A": 34,
      "B": 35,
      "C": 36,
      "D": 37,
      "E": 38,
      "F": 39,
      "G": 40,
      "H": 41,
      "I": 42,
      "J": 43,
      "K": 44,
      "L": 45,
      "M": 46,
      "N": 47,
      "O": 48,
      "P": 49,
      "Q": 50,
      "R": 51,
      "S": 52,
      "T": 53,
      "U": 54,
      "V": 55,
      "W": 56,
      "X": 57,
      "Y": 58,
      "Z": 59,
      "[": 60,
      "\\": 61,
      "]": 62,
      "^": 63,
      "_": 64,
      "`": 65,
      "a": 66,
      "b": 67,
      "c": 68,
      "d": 69,
      "e": 70,
      "f": 71,
      "g": 72,
      "h": 73,
      "i": 74,
      "j": 75,
      "k": 76,
      "l": 77,
      "m": 78,
      "n": 79,
      "o": 80,
      "p": 81,
      "q": 82,
      "r": 83,
      "s": 84,
      "t": 85,
      "u": 86,
      "v": 87,
      "w": 88,
      "x": 89,
      "y": 90,
      "z": 91,
      "": 92,
      "": 93,
      "": 94,
      "": 95,
      "": 96,
      "": 97,
      "£": 98,
      "¥": 99,
      "©": 100,
      "«": 101,
      "­": 102,
      "®": 103,
      "°": 104,
      "±": 105,
      "²": 106,
      "³": 107,
      "»": 108,
      "¼": 109,
      "½": 110,
      "¾": 111,
      "Ä": 112,
      "Å": 113,
      "Ç": 114,
      "É": 115,
      "Ö": 116,
      "×": 117,
      "Ü": 118,
      "ß": 119,
      "à": 120,
      "á": 121,
      "â": 122,
      "ã": 123,
      "ä": 124,
      "ç": 125,
      "è": 126,
      "é": 127,
      "ê": 128,
      "í": 129,
      "ï": 130,
      "ñ": 131,
      "ó": 132,
      "ô": 133,
      "ö": 134,
      "ø": 135,
      "ú": 136,
      "ü": 137,
      "ý": 138,
      "ā": 139,
      "ć": 140,
      "ē": 141,
      "œ": 142,
      "š": 143,
      "β": 144,
      "к": 145,
      "Ӓ": 146,
      "ย": 147,
      "ร": 148,
      "อ": 149,
      "่": 150,
      "‒": 151,
      "–": 152,
      "—": 153,
      "‚": 154,
      "‟": 155,
      "…": 156,
      "‹": 157,
      "›": 158,
      "€": 159,
      "√": 160,
      "你": 161,
      "葱": 162,
      "送": 163,
      "﻿": 164,
      "，": 165,
      "en": 166,
      "er": 167,
      "in": 168,
      "ch": 169,
      "th": 170,
      "an": 171,
      "ie": 172,
      "st": 173,
      "at": 174,
      "on": 175,
      "es": 176,
      "un": 177,
      "al": 178,
      "as": 179,
      "it": 180,
      "re": 181,
      "the": 182,
      "ich": 183,
      "is": 184,
      "ein": 185,
      "or": 186,
      "ou": 187,
      "ar": 188,
      "le": 189,
      "ing": 190,
      "to": 191,
      "te": 192,
      "se": 193,
      "au": 194,
      "and": 195,
      "die": 196,
      "be": 197,
      "ge": 198,
      "ir": 199,
      "der": 200,
      "of": 201,
      "de": 202,
      "om": 203,
      "und": 204,
      "ll": 205,
      "we": 206,
      "ig": 207,
      "ist": 208,
      "nd": 209,
      "den": 210,
      "das": 211,
      "ver": 212,
      "ab": 213,
      "ion": 214,
      "zu": 215,
      "that": 216,
      "ro": 217,
      "sch": 218,
      "he": 219,
      "ent": 220,
      "ve": 221,
      "ere": 222,
      "ic": 223,
      "so": 224,
      "im": 225,
      "all": 226,
      "you": 227,
      "am": 228,
      "no": 229,
      "ut": 230,
      "ur": 231,
      "ke": 232,
      "gen": 233,
      "wir": 234,
      "ten": 235,
      "wh": 236,
      "hr": 237,
      "il": 238,
      "ach": 239,
      "eine": 240,
      "ha": 241,
      "ne": 242,
      "ter": 243,
      "icht": 244,
      "lo": 245,
      "ier": 246,
      "was": 247,
      "lich": 248,
      "ac": 249,
      "ed": 250,
      "um": 251,
      "And": 252,
      "ber": 253,
      "us": 254,
      "me": 255,
      "ay": 256,
      "for": 257,
      "ung": 258,
      "ind": 259,
      "tr": 260,
      "ht": 261,
      "ld": 262,
      "Sie": 263,
      "this": 264,
      "sie": 265,
      "ste": 266,
      "sen": 267,
      "ag": 268,
      "ow": 269,
      "nen": 270,
      "pe": 271,
      "auf": 272,
      "wi": 273,
      "if": 274,
      "ür": 275,
      "et": 276,
      "von": 277,
      "Und": 278,
      "nicht": 279,
      "out": 280,
      "are": 281,
      "ol": 282,
      "go": 283,
      "do": 284,
      "el": 285,
      "ben": 286,
      "mo": 287,
      "ation": 288,
      "war": 289,
      "dass": 290,
      "--": 291,
      "hat": 292,
      "op": 293,
      "mit": 294,
      "id": 295,
      "ann": 296,
      "fr": 297,
      "ly": 298,
      "hen": 299,
      "com": 300,
      "man": 301,
      "aus": 302,
      "ce": 303,
      "ad": 304,
      "li": 305,
      "ess": 306,
      "So": 307,
      "wie": 308,
      "men": 309,
      "ally": 310,
      "wor": 311,
      "one": 312,
      "sp": 313,
      "ul": 314,
      "af": 315,
      "have": 316,
      "uns": 317,
      "isch": 318,
      "We": 319,
      "per": 320,
      "kt": 321,
      "ze": 322,
      "Ich": 323,
      "with": 324,
      "can": 325,
      "enn": 326,
      "sich": 327,
      "they": 328,
      "wer": 329,
      "pro": 330,
      "our": 331,
      "thing": 332,
      "als": 333,
      "ant": 334,
      "iel": 335,
      "aben": 336,
      "ct": 337,
      "ust": 338,
      "br": 339,
      "The": 340,
      "ck": 341,
      "what": 342,
      "sind": 343,
      "ex": 344,
      "über": 345,
      "gr": 346,
      "con": 347,
      "very": 348,
      "ma": 349,
      "ome": 350,
      "haben": 351,
      "fe": 352,
      "now": 353,
      "In": 354,
      "ther": 355,
      "ib": 356,
      "ön": 357,
      "einen": 358,
      "pl": 359,
      "Th": 360,
      "des": 361,
      "für": 362,
      "wo": 363,
      "about": 364,
      "art": 365,
      "diese": 366,
      "dem": 367,
      "uch": 368,
      "ould": 369,
      "her": 370,
      "00": 371,
      "act": 372,
      "ese": 373,
      "ies": 374,
      "not": 375,
      "ien": 376,
      "ap": 377,
      "Das": 378,
      "od": 379,
      "sa": 380,
      "ill": 381,
      "up": 382,
      "Es": 383,
      "pr": 384,
      ".\"": 385,
      "Le": 386,
      "ahr": 387,
      "It": 388,
      "mer": 389,
      "dies": 390,
      "kön": 391,
      "ik": 392,
      "my": 393,
      "ight": 394,
      "Wir": 395,
      "Be": 396,
      "there": 397,
      "Ge": 398,
      "ive": 399,
      "hl": 400,
      "ain": 401,
      "Sch": 402,
      "ok": 403,
      "iv": 404,
      "St": 405,
      "co": 406,
      "ort": 407,
      "sh": 408,
      "some": 409,
      "ure": 410,
      "qu": 411,
      "ate": 412,
      "je": 413,
      "ang": 414,
      "like": 415,
      "ted": 416,
      "auch": 417,
      "po": 418,
      "ink": 419,
      "vor": 420,
      "ide": 421,
      "einer": 422,
      "Er": 423,
      "ople": 424,
      "mach": 425,
      "ity": 426,
      "age": 427,
      "ast": 428,
      "ine": 429,
      "igen": 430,
      "sel": 431,
      "people": 432,
      "get": 433,
      "also": 434,
      "ute": 435,
      "esch": 436,
      "from": 437,
      "da": 438,
      "Die": 439,
      "än": 440,
      "ern": 441,
      "llen": 442,
      "ause": 443,
      "way": 444,
      "know": 445,
      "ken": 446,
      "wenn": 447,
      "ers": 448,
      "ass": 449,
      "dr": 450,
      "just": 451,
      "Ar": 452,
      "log": 453,
      "einem": 454,
      "ts": 455,
      "ih": 456,
      "ieren": 457,
      "But": 458,
      "them": 459,
      "ear": 460,
      "kann": 461,
      "können": 462,
      "zen": 463,
      "fo": 464,
      "Pro": 465,
      "lie": 466,
      "kom": 467,
      "bo": 468,
      "gan": 469,
      "cause": 470,
      "An": 471,
      "werden": 472,
      "but": 473,
      "fen": 474,
      "Al": 475,
      "iert": 476,
      "ite": 477,
      "Men": 478,
      "schen": 479,
      "kl": 480,
      "these": 481,
      "ment": 482,
      "oug": 483,
      "Ver": 484,
      "see": 485,
      "think": 486,
      "alle": 487,
      "tim": 488,
      "sten": 489,
      "hal": 490,
      "ah": 491,
      "Aber": 492,
      "ige": 493,
      "ks": 494,
      "going": 495,
      "tal": 496,
      "du": 497,
      "schaf": 498,
      "Re": 499,
      "by": 500,
      "oder": 501,
      "ungen": 502,
      "hier": 503,
      "fü": 504,
      "ble": 505,
      "aber": 506,
      "ibt": 507,
      "fer": 508,
      "end": 509,
      "year": 510,
      "who": 511,
      "ho": 512,
      "ame": 513,
      "nach": 514,
      "ple": 515,
      "zt": 516,
      "here": 517,
      "dar": 518,
      "sehr": 519,
      "other": 520,
      "Un": 521,
      "had": 522,
      "ger": 523,
      "sehen": 524,
      "your": 525,
      "viel": 526,
      "gro": 527,
      "ob": 528,
      "Te": 529,
      "more": 530,
      "uf": 531,
      "str": 532,
      "ial": 533,
      "will": 534,
      "ans": 535,
      "wird": 536,
      "how": 537,
      "ack": 538,
      "ta": 539,
      "ät": 540,
      "nur": 541,
      "bei": 542,
      "chen": 543,
      "when": 544,
      "gibt": 545,
      "ue": 546,
      "mal": 547,
      "fin": 548,
      "pen": 549,
      "iz": 550,
      "because": 551,
      "ild": 552,
      "sein": 553,
      "You": 554,
      "hin": 555,
      "really": 556,
      "Fr": 557,
      "ise": 558,
      "mich": 559,
      "would": 560,
      "itt": 561,
      "ör": 562,
      "mus": 563,
      "ischen": 564,
      "che": 565,
      "This": 566,
      "ange": 567,
      "elt": 568,
      "were": 569,
      "Menschen": 570,
      "gl": 571,
      "ually": 572,
      "ank": 573,
      "ous": 574,
      "urch": 575,
      "sc": 576,
      "ück": 577,
      "which": 578,
      "reat": 579,
      "vers": 580,
      "issen": 581,
      "ug": 582,
      "En": 583,
      "don": 584,
      "dann": 585,
      "Ih": 586,
      "has": 587,
      "ww": 588,
      "wur": 589,
      "keit": 590,
      "put": 591,
      "ace": 592,
      "under": 593,
      "Ze": 594,
      "ign": 595,
      "Gr": 596,
      "sy": 597,
      "Jahr": 598,
      "look": 599,
      "ip": 600,
      "noch": 601,
      "king": 602,
      "time": 603,
      "ven": 604,
      "their": 605,
      "habe": 606,
      "ot": 607,
      "let": 608,
      "ia": 609,
      "etwas": 610,
      "ater": 611,
      "day": 612,
      "hap": 613,
      "then": 614,
      "world": 615,
      "ander": 616,
      "wä": 617,
      "sag": 618,
      "where": 619,
      "son": 620,
      "own": 621,
      "use": 622,
      "Ein": 623,
      "heit": 624,
      "mö": 625,
      "mir": 626,
      "ft": 627,
      "bl": 628,
      "any": 629,
      "say": 630,
      "fl": 631,
      "able": 632,
      "form": 633,
      "äch": 634,
      "ihr": 635,
      "unter": 636,
      "ough": 637,
      "every": 638,
      "actually": 639,
      "wei": 640,
      "weit": 641,
      "into": 642,
      "want": 643,
      "mehr": 644,
      "dern": 645,
      "Se": 646,
      "ions": 647,
      "int": 648,
      "dieser": 649,
      "Now": 650,
      "Welt": 651,
      "did": 652,
      "ard": 653,
      "He": 654,
      "zur": 655,
      "things": 656,
      "They": 657,
      "ss": 658,
      "cent": 659,
      "ische": 660,
      "hn": 661,
      "ult": 662,
      "pt": 663,
      "inter": 664,
      "could": 665,
      "chno": 666,
      "stand": 667,
      "years": 668,
      "beit": 669,
      "durch": 670,
      "su": 671,
      "chnolog": 672,
      "inn": 673,
      "ges": 674,
      "Wenn": 675,
      "schaft": 676,
      "klich": 677,
      "pa": 678,
      "lang": 679,
      "ose": 680,
      "red": 681,
      "vie": 682,
      "ty": 683,
      "said": 684,
      "Leben": 685,
      "io": 686,
      "blem": 687,
      "fach": 688,
      "ong": 689,
      "bu": 690,
      "right": 691,
      "machen": 692,
      "tun": 693,
      "ice": 694,
      "immer": 695,
      "liche": 696,
      "mein": 697,
      "spe": 698,
      "lichen": 699,
      "wür": 700,
      "ory": 701,
      "Ihnen": 702,
      "been": 703,
      "lt": 704,
      "etzt": 705,
      "rei": 706,
      "Zeit": 707,
      "make": 708,
      "wirklich": 709,
      "dif": 710,
      "got": 711,
      "cl": 712,
      "ree": 713,
      "part": 714,
      "hy": 715,
      "stem": 716,
      "auen": 717,
      "new": 718,
      "gel": 719,
      "kon": 720,
      "ical": 721,
      "unser": 722,
      "work": 723,
      "cr": 724,
      "than": 725,
      "Also": 726,
      "over": 727,
      "off": 728,
      "bin": 729,
      "kommen": 730,
      "irst": 731,
      "wurde": 732,
      "?\"": 733,
      "zum": 734,
      "ak": 735,
      "Was": 736,
      "back": 737,
      "einfach": 738,
      "illion": 739,
      "most": 740,
      "mt": 741,
      "üs": 742,
      "something": 743,
      "come": 744,
      "kind": 745,
      "stell": 746,
      "two": 747,
      "ife": 748,
      "groß": 749,
      "Ding": 750,
      "try": 751,
      "bet": 752,
      "wen": 753,
      "assen": 754,
      "ile": 755,
      "Gesch": 756,
      "ked": 757,
      "That": 758,
      "agen": 759,
      "meine": 760,
      "unsere": 761,
      "ick": 762,
      "Ne": 763,
      "net": 764,
      "tell": 765,
      "ser": 766,
      "litt": 767,
      "000": 768,
      "its": 769,
      "port": 770,
      "res": 771,
      "weil": 772,
      "much": 773,
      "need": 774,
      "sam": 775,
      "first": 776,
      "ert": 777,
      "little": 778,
      "ient": 779,
      "dam": 780,
      "bst": 781,
      "star": 782,
      "wissen": 783,
      "oll": 784,
      "iden": 785,
      "she": 786,
      "sol": 787,
      "aten": 788,
      "ins": 789,
      "Or": 790,
      "gle": 791,
      "sagen": 792,
      "ihre": 793,
      "differ": 794,
      "pre": 795,
      "bar": 796,
      "hand": 797,
      "bis": 798,
      "life": 799,
      "rie": 800,
      "gt": 801,
      "em": 802,
      "hatte": 803,
      "What": 804,
      "iger": 805,
      "happen": 806,
      "pass": 807,
      "ves": 808,
      "dieses": 809,
      "those": 810,
      "dis": 811,
      "eing": 812,
      "nat": 813,
      "chte": 814,
      "ungs": 815,
      "bring": 816,
      "19": 817,
      "Vor": 818,
      "keine": 819,
      "his": 820,
      "macht": 821,
      "ats": 822,
      "zie": 823,
      "ds": 824,
      "ire": 825,
      "ody": 826,
      "sagte": 827,
      "schie": 828,
      "vol": 829,
      "Leute": 830,
      "ience": 831,
      "Man": 832,
      "set": 833,
      "lot": 834,
      "müs": 835,
      "neh": 836,
      "20": 837,
      "10": 838,
      "bal": 839,
      "ml": 840,
      "eines": 841,
      "Wie": 842,
      "ase": 843,
      "nte": 844,
      "gesch": 845,
      "ün": 846,
      "..": 847,
      "fä": 848,
      "ud": 849,
      "gut": 850,
      "ound": 851,
      "ving": 852,
      "piel": 853,
      "hlen": 854,
      "os": 855,
      "diesem": 856,
      "technolog": 857,
      "est": 858,
      "There": 859,
      "real": 860,
      "beg": 861,
      "isten": 862,
      "ktion": 863,
      "talks": 864,
      "ition": 865,
      "hum": 866,
      "Art": 867,
      "ade": 868,
      "lear": 869,
      "tel": 870,
      "body": 871,
      "only": 872,
      "acht": 873,
      "down": 874,
      "är": 875,
      "waren": 876,
      "aut": 877,
      "mar": 878,
      "ated": 879,
      "Dinge": 880,
      "glich": 881,
      "good": 882,
      "system": 883,
      "does": 884,
      "take": 885,
      "wa": 886,
      "viele": 887,
      "soll": 888,
      "att": 889,
      "ichte": 890,
      "müssen": 891,
      "tp": 892,
      "ler": 893,
      "diesen": 894,
      "www": 895,
      "zwei": 896,
      "leicht": 897,
      "thr": 898,
      "http": 899,
      "//": 900,
      "://": 901,
      "html": 902,
      "self": 903,
      "geb": 904,
      "ßen": 905,
      "ance": 906,
      "ations": 907,
      "many": 908,
      "gew": 909,
      "erg": 910,
      "For": 911,
      "even": 912,
      "hör": 913,
      "hig": 914,
      "ra": 915,
      "gehen": 916,
      "jetzt": 917,
      "par": 918,
      "stellen": 919,
      "ster": 920,
      "ics": 921,
      "bre": 922,
      "ting": 923,
      "unden": 924,
      "different": 925,
      "Jahren": 926,
      "Au": 927,
      "andere": 928,
      "Kin": 929,
      "tur": 930,
      "teil": 931,
      "Well": 932,
      "around": 933,
      "Dies": 934,
      "ichtig": 935,
      "glau": 936,
      "brauch": 937,
      "Der": 938,
      "Kon": 939,
      "geben": 940,
      "ution": 941,
      "med": 942,
      "min": 943,
      "mon": 944,
      "fore": 945,
      "tro": 946,
      "Me": 947,
      "fun": 948,
      "nie": 949,
      "geht": 950,
      "halten": 951,
      "erst": 952,
      "ought": 953,
      "Aus": 954,
      "führ": 955,
      "through": 956,
      "ish": 957,
      "car": 958,
      "ahre": 959,
      "ff": 960,
      "cht": 961,
      "alles": 962,
      "gar": 963,
      "würde": 964,
      "land": 965,
      "ph": 966,
      "problem": 967,
      "ian": 968,
      "bes": 969,
      "wieder": 970,
      "arbeit": 971,
      "change": 972,
      "iss": 973,
      "coun": 974,
      "big": 975,
      "anderen": 976,
      "cre": 977,
      "hel": 978,
      "stehen": 979,
      "produ": 980,
      "same": 981,
      "Tr": 982,
      "gu": 983,
      "gleich": 984,
      "being": 985,
      "kr": 986,
      "ible": 987,
      "aw": 988,
      "bit": 989,
      "ious": 990,
      "Auf": 991,
      "mand": 992,
      "igt": 993,
      "lau": 994,
      "Inter": 995,
      "nehmen": 996,
      "show": 997,
      "read": 998,
      "Nun": 999,
      "finden": 1000,
      "weiter": 1001,
      "ner": 1002,
      "ens": 1003,
      "cess": 1004,
      "ary": 1005,
      "gend": 1006,
      "50": 1007,
      "If": 1008,
      "Pl": 1009,
      "ual": 1010,
      "selbst": 1011,
      "tre": 1012,
      "pol": 1013,
      "design": 1014,
      "rel": 1015,
      "det": 1016,
      "well": 1017,
      "Unter": 1018,
      "technology": 1019,
      "Afr": 1020,
      "Br": 1021,
      "wic": 1022,
      "ors": 1023,
      "damit": 1024,
      "fa": 1025,
      "ität": 1026,
      "doing": 1027,
      "tra": 1028,
      "find": 1029,
      "ction": 1030,
      "sur": 1031,
      "ep": 1032,
      "amil": 1033,
      "three": 1034,
      "Ind": 1035,
      "ache": 1036,
      "Kr": 1037,
      "fact": 1038,
      "aum": 1039,
      "ful": 1040,
      "alt": 1041,
      "Jahre": 1042,
      "zent": 1043,
      "sit": 1044,
      "tet": 1045,
      "fol": 1046,
      "xt": 1047,
      "alled": 1048,
      "ale": 1049,
      "leben": 1050,
      "start": 1051,
      "kam": 1052,
      "denken": 1053,
      "muss": 1054,
      "ele": 1055,
      "ject": 1056,
      "glo": 1057,
      "ry": 1058,
      "called": 1059,
      "erz": 1060,
      "ically": 1061,
      "bas": 1062,
      "oh": 1063,
      "änder": 1064,
      "mun": 1065,
      "genau": 1066,
      "nis": 1067,
      "sim": 1068,
      "gre": 1069,
      "zurück": 1070,
      "human": 1071,
      "Mit": 1072,
      "led": 1073,
      "best": 1074,
      "Pr": 1075,
      "möchte": 1076,
      "ächlich": 1077,
      "Mo": 1078,
      "may": 1079,
      "uck": 1080,
      "ways": 1081,
      "build": 1082,
      "vis": 1083,
      "allen": 1084,
      "wr": 1085,
      "kel": 1086,
      "percent": 1087,
      "schon": 1088,
      "cour": 1089,
      "les": 1090,
      "ivers": 1091,
      "gest": 1092,
      "los": 1093,
      "wel": 1094,
      "soc": 1095,
      "av": 1096,
      "ons": 1097,
      "great": 1098,
      "spr": 1099,
      "Kinder": 1100,
      "Amer": 1101,
      "fahr": 1102,
      "ved": 1103,
      "Ent": 1104,
      "came": 1105,
      "ord": 1106,
      "schl": 1107,
      "formation": 1108,
      "ize": 1109,
      "ces": 1110,
      "ded": 1111,
      "ging": 1112,
      "tern": 1113,
      "made": 1114,
      "plan": 1115,
      "play": 1116,
      "Ch": 1117,
      "quest": 1118,
      "dec": 1119,
      "sm": 1120,
      "omen": 1121,
      "ict": 1122,
      "Hier": 1123,
      "col": 1124,
      "heraus": 1125,
      "arch": 1126,
      "denn": 1127,
      "vent": 1128,
      "uc": 1129,
      "ars": 1130,
      "onder": 1131,
      "such": 1132,
      "ned": 1133,
      "angen": 1134,
      "ganz": 1135,
      "öß": 1136,
      "Um": 1137,
      "och": 1138,
      "neu": 1139,
      "again": 1140,
      "Ges": 1141,
      "atsächlich": 1142,
      "Ide": 1143,
      "exper": 1144,
      "Teil": 1145,
      "bess": 1146,
      "Wo": 1147,
      "talk": 1148,
      "sche": 1149,
      "ica": 1150,
      "versuch": 1151,
      "letz": 1152,
      "global": 1153,
      "uss": 1154,
      "ihnen": 1155,
      "kommt": 1156,
      "äu": 1157,
      "weg": 1158,
      "All": 1159,
      "why": 1160,
      "ahl": 1161,
      "vir": 1162,
      "Gen": 1163,
      "lassen": 1164,
      "zusam": 1165,
      "Sy": 1166,
      "oment": 1167,
      "davon": 1168,
      "ence": 1169,
      "ating": 1170,
      "brain": 1171,
      "ull": 1172,
      "ms": 1173,
      "ates": 1174,
      "person": 1175,
      "creat": 1176,
      "iness": 1177,
      "Geschichte": 1178,
      "zusammen": 1179,
      "De": 1180,
      "Fl": 1181,
      "story": 1182,
      "vielleicht": 1183,
      "after": 1184,
      "200": 1185,
      "Arbeit": 1186,
      "ool": 1187,
      "pow": 1188,
      "igkeit": 1189,
      "halb": 1190,
      "bere": 1191,
      "Beis": 1192,
      "erest": 1193,
      "az": 1194,
      "last": 1195,
      "heute": 1196,
      "alth": 1197,
      "bs": 1198,
      "Im": 1199,
      "zw": 1200,
      "üt": 1201,
      "Wissen": 1202,
      "import": 1203,
      "went": 1204,
      "Land": 1205,
      "him": 1206,
      "nten": 1207,
      "Bild": 1208,
      "thought": 1209,
      "Tag": 1210,
      "didn": 1211,
      "ierte": 1212,
      "ever": 1213,
      "less": 1214,
      "interest": 1215,
      "ix": 1216,
      "ities": 1217,
      "unt": 1218,
      "mean": 1219,
      "Zu": 1220,
      "should": 1221,
      "drei": 1222,
      "schein": 1223,
      "uten": 1224,
      "ning": 1225,
      "werde": 1226,
      "hatten": 1227,
      "old": 1228,
      "pie": 1229,
      "belie": 1230,
      "bt": 1231,
      "wahr": 1232,
      "dort": 1233,
      "ED": 1234,
      "ys": 1235,
      "achte": 1236,
      "ihn": 1237,
      "feel": 1238,
      "mat": 1239,
      "denen": 1240,
      "puter": 1241,
      "weise": 1242,
      "today": 1243,
      "nun": 1244,
      "einige": 1245,
      "paar": 1246,
      "Ihr": 1247,
      "cond": 1248,
      "ago": 1249,
      "Bl": 1250,
      "cur": 1251,
      "Nach": 1252,
      "spre": 1253,
      "ja": 1254,
      "Diese": 1255,
      "mlich": 1256,
      "entlich": 1257,
      "woll": 1258,
      "light": 1259,
      "organ": 1260,
      "ielen": 1261,
      "gram": 1262,
      "idea": 1263,
      "started": 1264,
      "course": 1265,
      "sed": 1266,
      "important": 1267,
      "used": 1268,
      "mor": 1269,
      "lle": 1270,
      "änd": 1271,
      "wollen": 1272,
      "30": 1273,
      "grap": 1274,
      "place": 1275,
      "schw": 1276,
      "kes": 1277,
      "exam": 1278,
      "darüber": 1279,
      "meiner": 1280,
      "give": 1281,
      "atur": 1282,
      "könnte": 1283,
      "sieht": 1284,
      "ular": 1285,
      "Problem": 1286,
      "pres": 1287,
      "power": 1288,
      "Thank": 1289,
      "kte": 1290,
      "bab": 1291,
      "atz": 1292,
      "ational": 1293,
      "iver": 1294,
      "tatsächlich": 1295,
      "oren": 1296,
      "long": 1297,
      "cho": 1298,
      "science": 1299,
      "reich": 1300,
      "hir": 1301,
      "ef": 1302,
      "gab": 1303,
      "eng": 1304,
      "book": 1305,
      "bus": 1306,
      "ürlich": 1307,
      "line": 1308,
      "nam": 1309,
      "Mon": 1310,
      "anz": 1311,
      "never": 1312,
      "sort": 1313,
      "another": 1314,
      "Str": 1315,
      "still": 1316,
      "before": 1317,
      "bringen": 1318,
      "Fre": 1319,
      "größ": 1320,
      "tin": 1321,
      "unde": 1322,
      "Beispiel": 1323,
      "Chin": 1324,
      "Ok": 1325,
      "ko": 1326,
      "fall": 1327,
      "ichten": 1328,
      "hys": 1329,
      "fect": 1330,
      "weiß": 1331,
      "How": 1332,
      "low": 1333,
      "pat": 1334,
      "einz": 1335,
      "water": 1336,
      "TED": 1337,
      "ings": 1338,
      "vel": 1339,
      "nor": 1340,
      "Ex": 1341,
      "wurden": 1342,
      "unge": 1343,
      "Com": 1344,
      "besch": 1345,
      "ped": 1346,
      "hä": 1347,
      "Her": 1348,
      "kid": 1349,
      "side": 1350,
      "utzen": 1351,
      "top": 1352,
      "better": 1353,
      "Des": 1354,
      "gemacht": 1355,
      "ändern": 1356,
      "spec": 1357,
      "ital": 1358,
      "seine": 1359,
      "Ro": 1360,
      "ied": 1361,
      "ility": 1362,
      "War": 1363,
      "understand": 1364,
      "sk": 1365,
      "agt": 1366,
      "stellt": 1367,
      "Fe": 1368,
      "denke": 1369,
      "cult": 1370,
      "school": 1371,
      "volution": 1372,
      "oft": 1373,
      "cy": 1374,
      "Mar": 1375,
      "nah": 1376,
      "ists": 1377,
      "hrend": 1378,
      "cor": 1379,
      "äd": 1380,
      "No": 1381,
      "irgend": 1382,
      "gegen": 1383,
      "ub": 1384,
      "ents": 1385,
      "next": 1386,
      "erzä": 1387,
      "ane": 1388,
      "Bo": 1389,
      "mot": 1390,
      "Ab": 1391,
      "aufen": 1392,
      "entwic": 1393,
      "umber": 1394,
      "New": 1395,
      "call": 1396,
      "Million": 1397,
      "Ihre": 1398,
      "akt": 1399,
      "point": 1400,
      "comp": 1401,
      "too": 1402,
      "Because": 1403,
      "eigen": 1404,
      "jemand": 1405,
      "might": 1406,
      "fre": 1407,
      "Mal": 1408,
      "stru": 1409,
      "grow": 1410,
      "zeit": 1411,
      "neue": 1412,
      "ata": 1413,
      "comple": 1414,
      "found": 1415,
      "air": 1416,
      "row": 1417,
      "glaube": 1418,
      "commun": 1419,
      "gether": 1420,
      "fühl": 1421,
      "When": 1422,
      "ath": 1423,
      "ika": 1424,
      "zwischen": 1425,
      "bede": 1426,
      "kein": 1427,
      "velo": 1428,
      "Geb": 1429,
      "wichtig": 1430,
      "Gehir": 1431,
      "ket": 1432,
      "ildr": 1433,
      "inc": 1434,
      "gener": 1435,
      "del": 1436,
      "100": 1437,
      "Als": 1438,
      "zeigen": 1439,
      "unserer": 1440,
      "mber": 1441,
      "few": 1442,
      "together": 1443,
      "15": 1444,
      "ave": 1445,
      "...": 1446,
      "Wass": 1447,
      "uden": 1448,
      "iter": 1449,
      "achten": 1450,
      "ildren": 1451,
      "Wer": 1452,
      "funktion": 1453,
      "wäre": 1454,
      "love": 1455,
      "wan": 1456,
      "poss": 1457,
      "imag": 1458,
      "far": 1459,
      "Technolog": 1460,
      ",\"": 1461,
      "vom": 1462,
      "interess": 1463,
      "legen": 1464,
      "cken": 1465,
      "Ma": 1466,
      "dazu": 1467,
      "schne": 1468,
      "sha": 1469,
      "turn": 1470,
      "ween": 1471,
      "einmal": 1472,
      "question": 1473,
      "Kl": 1474,
      "care": 1475,
      "Frage": 1476,
      "besser": 1477,
      "Hand": 1478,
      "trans": 1479,
      "fast": 1480,
      "iolog": 1481,
      "polit": 1482,
      "ium": 1483,
      "dre": 1484,
      "iven": 1485,
      "ited": 1486,
      "ideo": 1487,
      "Pers": 1488,
      "four": 1489,
      "voll": 1490,
      "achen": 1491,
      "wus": 1492,
      "each": 1493,
      "comes": 1494,
      "gerade": 1495,
      "health": 1496,
      "number": 1497,
      "afür": 1498,
      "ren": 1499,
      "ely": 1500,
      "children": 1501,
      "Prozent": 1502,
      "cell": 1503,
      "conom": 1504,
      "chn": 1505,
      "sprechen": 1506,
      "hät": 1507,
      "looking": 1508,
      "Grund": 1509,
      "ertain": 1510,
      "offen": 1511,
      "My": 1512,
      "näch": 1513,
      "doesn": 1514,
      "sing": 1515,
      "passiert": 1516,
      "Med": 1517,
      "Is": 1518,
      "mag": 1519,
      "oney": 1520,
      "betr": 1521,
      "amer": 1522,
      "done": 1523,
      "äs": 1524,
      "pf": 1525,
      "develo": 1526,
      "Eine": 1527,
      "Ste": 1528,
      "fähr": 1529,
      "room": 1530,
      "live": 1531,
      "between": 1532,
      "Da": 1533,
      "million": 1534,
      "ohne": 1535,
      "kennen": 1536,
      "Über": 1537,
      "esen": 1538,
      "ps": 1539,
      "nichts": 1540,
      "reg": 1541,
      "Wasser": 1542,
      "unkt": 1543,
      "möglich": 1544,
      "econom": 1545,
      "erste": 1546,
      "Kom": 1547,
      "example": 1548,
      "data": 1549,
      "sogar": 1550,
      "iten": 1551,
      "sicher": 1552,
      "Sp": 1553,
      "lar": 1554,
      "wegen": 1555,
      "clo": 1556,
      "anke": 1557,
      "dafür": 1558,
      "ative": 1559,
      "vo": 1560,
      "sondern": 1561,
      "gese": 1562,
      "business": 1563,
      "bed": 1564,
      "ident": 1565,
      "ersten": 1566,
      "head": 1567,
      "verschie": 1568,
      "wohl": 1569,
      "famil": 1570,
      "zer": 1571,
      "small": 1572,
      "Gehirn": 1573,
      "wanted": 1574,
      "uff": 1575,
      "Ger": 1576,
      "sum": 1577,
      "ters": 1578,
      "Internet": 1579,
      "move": 1580,
      "wal": 1581,
      "sto": 1582,
      "ized": 1583,
      "essen": 1584,
      "press": 1585,
      "bot": 1586,
      "würden": 1587,
      "jeder": 1588,
      "whole": 1589,
      "face": 1590,
      "aft": 1591,
      "Lebens": 1592,
      "arbeiten": 1593,
      "anim": 1594,
      "ierung": 1595,
      "imm": 1596,
      "ship": 1597,
      "leg": 1598,
      "Millionen": 1599,
      "iß": 1600,
      "öff": 1601,
      "ith": 1602,
      "ask": 1603,
      "immt": 1604,
      "letzten": 1605,
      "konnte": 1606,
      "high": 1607,
      "daran": 1608,
      "steht": 1609,
      "ific": 1610,
      "Univers": 1611,
      "partic": 1612,
      "phys": 1613,
      "Okay": 1614,
      "Geld": 1615,
      "ker": 1616,
      "cher": 1617,
      "vi": 1618,
      "meisten": 1619,
      "18": 1620,
      "stre": 1621,
      "natürlich": 1622,
      "hol": 1623,
      "anc": 1624,
      "reas": 1625,
      "örper": 1626,
      "mind": 1627,
      "selves": 1628,
      "meinen": 1629,
      "ationen": 1630,
      "As": 1631,
      "innen": 1632,
      "cted": 1633,
      "away": 1634,
      "bor": 1635,
      "eig": 1636,
      "während": 1637,
      "ru": 1638,
      "Go": 1639,
      "always": 1640,
      "Reg": 1641,
      "Gl": 1642,
      "energ": 1643,
      "warum": 1644,
      "pu": 1645,
      "ness": 1646,
      "Daten": 1647,
      "Oh": 1648,
      "ones": 1649,
      "bekommen": 1650,
      "illi": 1651,
      "ziemlich": 1652,
      "Mus": 1653,
      "food": 1654,
      "bel": 1655,
      "Idee": 1656,
      "mut": 1657,
      "Min": 1658,
      "money": 1659,
      "Ant": 1660,
      "sollte": 1661,
      "help": 1662,
      "ines": 1663,
      "ihren": 1664,
      "culture": 1665,
      "jed": 1666,
      "ikan": 1667,
      "Dr": 1668,
      "dire": 1669,
      "sagt": 1670,
      "richt": 1671,
      "One": 1672,
      "verstehen": 1673,
      "Je": 1674,
      "inner": 1675,
      "fut": 1676,
      "ural": 1677,
      "working": 1678,
      "fil": 1679,
      "ism": 1680,
      "vier": 1681,
      "atch": 1682,
      "schaffen": 1683,
      "etwa": 1684,
      "uro": 1685,
      "hist": 1686,
      "mel": 1687,
      "jekt": 1688,
      "ständ": 1689,
      "mensch": 1690,
      "kur": 1691,
      "zeigt": 1692,
      "verl": 1693,
      "große": 1694,
      "wollte": 1695,
      "Doll": 1696,
      "space": 1697,
      "ös": 1698,
      "ßer": 1699,
      "welt": 1700,
      "doll": 1701,
      "ives": 1702,
      "hän": 1703,
      "mp": 1704,
      "using": 1705,
      "anken": 1706,
      "ganze": 1707,
      "cover": 1708,
      "yo": 1709,
      "graph": 1710,
      "ommen": 1711,
      "cept": 1712,
      "cap": 1713,
      "ross": 1714,
      "five": 1715,
      "sup": 1716,
      "iere": 1717,
      "meinem": 1718,
      "women": 1719,
      "trying": 1720,
      "believe": 1721,
      "coming": 1722,
      "12": 1723,
      "open": 1724,
      "These": 1725,
      "moment": 1726,
      "cal": 1727,
      "einander": 1728,
      "Auto": 1729,
      "Schl": 1730,
      "Par": 1731,
      "Mö": 1732,
      "uge": 1733,
      "sollten": 1734,
      "kids": 1735,
      "future": 1736,
      "stud": 1737,
      "pret": 1738,
      "pho": 1739,
      "Let": 1740,
      "vest": 1741,
      "test": 1742,
      "öt": 1743,
      "40": 1744,
      "Frauen": 1745,
      "elle": 1746,
      "ider": 1747,
      "ift": 1748,
      "happ": 1749,
      "eln": 1750,
      "Weg": 1751,
      "Africa": 1752,
      "NA": 1753,
      "cer": 1754,
      "schied": 1755,
      "Dollar": 1756,
      "ont": 1757,
      "ischer": 1758,
      "schnell": 1759,
      "ird": 1760,
      "OK": 1761,
      "ließ": 1762,
      "licher": 1763,
      "zeug": 1764,
      "gesehen": 1765,
      "teach": 1766,
      "frien": 1767,
      "Here": 1768,
      "gef": 1769,
      "Wor": 1770,
      "la": 1771,
      "val": 1772,
      "took": 1773,
      "seit": 1774,
      "second": 1775,
      "welche": 1776,
      "brauchen": 1777,
      "Spiel": 1778,
      "home": 1779,
      "wort": 1780,
      "isen": 1781,
      "half": 1782,
      "blo": 1783,
      "ments": 1784,
      "Person": 1785,
      "energy": 1786,
      "Do": 1787,
      "She": 1788,
      "Sache": 1789,
      "aces": 1790,
      "kun": 1791,
      "everything": 1792,
      "cke": 1793,
      "Fo": 1794,
      "asch": 1795,
      "abor": 1796,
      "country": 1797,
      "Raum": 1798,
      "uft": 1799,
      "full": 1800,
      "win": 1801,
      "China": 1802,
      "60": 1803,
      "Ko": 1804,
      "educ": 1805,
      "zial": 1806,
      "prof": 1807,
      "har": 1808,
      "project": 1809,
      "inst": 1810,
      "quite": 1811,
      "Dank": 1812,
      "utet": 1813,
      "left": 1814,
      "fahren": 1815,
      "thinking": 1816,
      "ffen": 1817,
      "könnten": 1818,
      "\".": 1819,
      "Spr": 1820,
      "ergie": 1821,
      "hren": 1822,
      "sho": 1823,
      "fand": 1824,
      "ime": 1825,
      "probab": 1826,
      "hunder": 1827,
      "chten": 1828,
      "hören": 1829,
      "scheinlich": 1830,
      "cle": 1831,
      "social": 1832,
      "dig": 1833,
      "gh": 1834,
      "pon": 1835,
      "means": 1836,
      "ouse": 1837,
      "ye": 1838,
      "Kind": 1839,
      "ustr": 1840,
      "conne": 1841,
      "kleinen": 1842,
      "Mut": 1843,
      "igh": 1844,
      "bauen": 1845,
      "dabei": 1846,
      "To": 1847,
      "nov": 1848,
      "ktur": 1849,
      "cture": 1850,
      "aterial": 1851,
      "hard": 1852,
      "dachte": 1853,
      "Jo": 1854,
      "SA": 1855,
      "ule": 1856,
      "Dann": 1857,
      "tt": 1858,
      "Technologie": 1859,
      "hau": 1860,
      "darauf": 1861,
      "music": 1862,
      "Yor": 1863,
      "vern": 1864,
      "gn": 1865,
      "information": 1866,
      "reiben": 1867,
      "interesting": 1868,
      "Gro": 1869,
      "asse": 1870,
      "schle": 1871,
      "Kre": 1872,
      "fte": 1873,
      "run": 1874,
      "member": 1875,
      "etz": 1876,
      "weniger": 1877,
      "viron": 1878,
      "ping": 1879,
      "Ende": 1880,
      "ihrer": 1881,
      "sense": 1882,
      "doch": 1883,
      "ready": 1884,
      "normal": 1885,
      "Kar": 1886,
      "Warum": 1887,
      "üh": 1888,
      "issu": 1889,
      "Ja": 1890,
      "making": 1891,
      "create": 1892,
      "Mann": 1893,
      "maybe": 1894,
      "alten": 1895,
      "met": 1896,
      "Famil": 1897,
      "Mein": 1898,
      "enough": 1899,
      "stuff": 1900,
      "jo": 1901,
      "ilt": 1902,
      "wed": 1903,
      "publ": 1904,
      "mil": 1905,
      "getting": 1906,
      "Nor": 1907,
      "become": 1908,
      "imes": 1909,
      "setzen": 1910,
      "hö": 1911,
      "pop": 1912,
      "happened": 1913,
      "Design": 1914,
      "char": 1915,
      "month": 1916,
      "Körper": 1917,
      "building": 1918,
      "Wissenschaft": 1919,
      "sicht": 1920,
      "iting": 1921,
      "Denn": 1922,
      "Fall": 1923,
      "ckt": 1924,
      "Seite": 1925,
      "kleine": 1926,
      "laub": 1927,
      "aur": 1928,
      "mals": 1929,
      "nä": 1930,
      "issues": 1931,
      "process": 1932,
      "colle": 1933,
      "ional": 1934,
      "bedeutet": 1935,
      "iment": 1936,
      "hört": 1937,
      "environ": 1938,
      "ihm": 1939,
      "photo": 1940,
      "kunft": 1941,
      "fig": 1942,
      "probably": 1943,
      "wach": 1944,
      "äter": 1945,
      "wee": 1946,
      "Pol": 1947,
      "ivid": 1948,
      "stor": 1949,
      "stop": 1950,
      "Why": 1951,
      "na": 1952,
      "wunder": 1953,
      "else": 1954,
      "says": 1955,
      "uer": 1956,
      "times": 1957,
      "planet": 1958,
      "ulation": 1959,
      "fas": 1960,
      "biolog": 1961,
      "possible": 1962,
      "view": 1963,
      "glichkeit": 1964,
      "talking": 1965,
      "Ob": 1966,
      "ican": 1967,
      "_the": 1968,
      "ward": 1969,
      "contro": 1970,
      "Fä": 1971,
      "Fil": 1972,
      "heiß": 1973,
      "Menge": 1974,
      "eigentlich": 1975,
      "ator": 1976,
      "liegen": 1977,
      "wonder": 1978,
      "simple": 1979,
      "mother": 1980,
      "zlich": 1981,
      "At": 1982,
      "dollars": 1983,
      "80": 1984,
      "tschaft": 1985,
      "Energie": 1986,
      "Pat": 1987,
      "bad": 1988,
      "enz": 1989,
      "_the_": 1990,
      "dist": 1991,
      "führen": 1992,
      "ierten": 1993,
      "zeich": 1994,
      "Computer": 1995,
      "verwen": 1996,
      "tries": 1997,
      "without": 1998,
      "wind": 1999,
      "ability": 2000,
      "grund": 2001,
      "hor": 2002,
      "zwe": 2003,
      "grou": 2004,
      "Den": 2005,
      "sub": 2006,
      "Pe": 2007,
      "unseren": 2008,
      "anything": 2009,
      "pict": 2010,
      "program": 2011,
      "adt": 2012,
      "fangen": 2013,
      "schauen": 2014,
      "York": 2015,
      "ged": 2016,
      "goes": 2017,
      "spir": 2018,
      "lernen": 2019,
      "fle": 2020,
      "Möglichkeit": 2021,
      "Ele": 2022,
      "ax": 2023,
      "wand": 2024,
      "rop": 2025,
      "amen": 2026,
      "pretty": 2027,
      "sign": 2028,
      "imp": 2029,
      "makes": 2030,
      "picture": 2031,
      "klär": 2032,
      "gesagt": 2033,
      "halt": 2034,
      "wenig": 2035,
      "ants": 2036,
      "answer": 2037,
      "großen": 2038,
      "hed": 2039,
      "environment": 2040,
      "Buch": 2041,
      "On": 2042,
      "rest": 2043,
      "Co": 2044,
      "hour": 2045,
      "jeden": 2046,
      "Dar": 2047,
      "ctr": 2048,
      "ister": 2049,
      "seen": 2050,
      "llow": 2051,
      "Ear": 2052,
      "führt": 2053,
      "ganzen": 2054,
      "Frau": 2055,
      "keinen": 2056,
      "Viel": 2057,
      "vö": 2058,
      "tent": 2059,
      "child": 2060,
      "sound": 2061,
      "oper": 2062,
      "Information": 2063,
      "saw": 2064,
      "aller": 2065,
      "besonder": 2066,
      "Du": 2067,
      "case": 2068,
      "miss": 2069,
      "told": 2070,
      "versuchen": 2071,
      "statt": 2072,
      "pect": 2073,
      "govern": 2074,
      "rad": 2075,
      "expl": 2076,
      "fest": 2077,
      "äl": 2078,
      "reason": 2079,
      "irl": 2080,
      "Chr": 2081,
      "ying": 2082,
      "Proble": 2083,
      "fün": 2084,
      "Po": 2085,
      "ced": 2086,
      "job": 2087,
      "arbe": 2088,
      "mittel": 2089,
      "beginn": 2090,
      "ately": 2091,
      "lea": 2092,
      "computer": 2093,
      "ton": 2094,
      "keep": 2095,
      "ivity": 2096,
      "Danke": 2097,
      "living": 2098,
      "themat": 2099,
      "happens": 2100,
      "System": 2101,
      "bro": 2102,
      "äum": 2103,
      "Zukunft": 2104,
      "ices": 2105,
      "order": 2106,
      "außer": 2107,
      "ga": 2108,
      "six": 2109,
      "Jetzt": 2110,
      "absol": 2111,
      "ionen": 2112,
      "works": 2113,
      "illiar": 2114,
      "ansp": 2115,
      "reichen": 2116,
      "education": 2117,
      "El": 2118,
      "ures": 2119,
      "uppe": 2120,
      "Licht": 2121,
      "ially": 2122,
      "hab": 2123,
      "kü": 2124,
      "\",": 2125,
      "Vers": 2126,
      "iverse": 2127,
      "kten": 2128,
      "iges": 2129,
      "bur": 2130,
      "unglaub": 2131,
      "lives": 2132,
      "Lo": 2133,
      "hung": 2134,
      "studen": 2135,
      "asked": 2136,
      "hope": 2137,
      "Vielen": 2138,
      "Weise": 2139,
      "young": 2140,
      "Mutter": 2141,
      "Groß": 2142,
      "utz": 2143,
      "ument": 2144,
      "ene": 2145,
      "trag": 2146,
      "Engl": 2147,
      "Euro": 2148,
      "iet": 2149,
      "iff": 2150,
      "sah": 2151,
      "fünf": 2152,
      "Milliar": 2153,
      "inde": 2154,
      "itten": 2155,
      "hil": 2156,
      "tom": 2157,
      "schr": 2158,
      "hoch": 2159,
      "tau": 2160,
      "utes": 2161,
      "exp": 2162,
      "pos": 2163,
      "Earth": 2164,
      "di": 2165,
      "Kop": 2166,
      "whe": 2167,
      "ince": 2168,
      "across": 2169,
      "Sel": 2170,
      "plic": 2171,
      "days": 2172,
      "Augen": 2173,
      "electr": 2174,
      "Bil": 2175,
      "ided": 2176,
      "Ort": 2177,
      "eas": 2178,
      "Ber": 2179,
      "model": 2180,
      "learn": 2181,
      "countries": 2182,
      "family": 2183,
      "itu": 2184,
      "scient": 2185,
      "tem": 2186,
      "uring": 2187,
      "wahrscheinlich": 2188,
      "esearch": 2189,
      "serv": 2190,
      "Moment": 2191,
      "zahl": 2192,
      "ernt": 2193,
      "funktioniert": 2194,
      "ality": 2195,
      "fort": 2196,
      "glauben": 2197,
      "yes": 2198,
      "später": 2199,
      "ches": 2200,
      "ply": 2201,
      "acc": 2202,
      "Lie": 2203,
      "history": 2204,
      "gute": 2205,
      "billion": 2206,
      "fal": 2207,
      "langu": 2208,
      "inside": 2209,
      "later": 2210,
      "ris": 2211,
      "particular": 2212,
      "sor": 2213,
      "level": 2214,
      "Son": 2215,
      "fing": 2216,
      "basically": 2217,
      "hätte": 2218,
      "unst": 2219,
      "Erde": 2220,
      "25": 2221,
      "Ged": 2222,
      "nung": 2223,
      "stellung": 2224,
      "entwickel": 2225,
      "anders": 2226,
      "exist": 2227,
      "bil": 2228,
      "certain": 2229,
      "iving": 2230,
      "ungefähr": 2231,
      "frag": 2232,
      "11": 2233,
      "ered": 2234,
      "erzählen": 2235,
      "complete": 2236,
      "gs": 2237,
      "Natur": 2238,
      "Spe": 2239,
      "zo": 2240,
      "gestellt": 2241,
      "worden": 2242,
      "experience": 2243,
      "pain": 2244,
      "Produ": 2245,
      "Entwic": 2246,
      "heißt": 2247,
      "cou": 2248,
      "control": 2249,
      "having": 2250,
      "wrong": 2251,
      "eigenen": 2252,
      "invest": 2253,
      "gemein": 2254,
      "schaften": 2255,
      "effect": 2256,
      "ktr": 2257,
      "komple": 2258,
      "ousand": 2259,
      "problems": 2260,
      "Ir": 2261,
      "herum": 2262,
      "Entwickl": 2263,
      "psy": 2264,
      "wicht": 2265,
      "olle": 2266,
      "front": 2267,
      "product": 2268,
      "Musik": 2269,
      "hear": 2270,
      "jedes": 2271,
      "ization": 2272,
      "lim": 2273,
      "Ha": 2274,
      "oked": 2275,
      "ief": 2276,
      "kre": 2277,
      "ideas": 2278,
      "DNA": 2279,
      "hing": 2280,
      "ahlen": 2281,
      "bi": 2282,
      "spielen": 2283,
      "looks": 2284,
      "Organ": 2285,
      "Haus": 2286,
      "equ": 2287,
      "guy": 2288,
      "Wahr": 2289,
      "contin": 2290,
      "sage": 2291,
      "watch": 2292,
      "vielen": 2293,
      "thousand": 2294,
      "single": 2295,
      "seiner": 2296,
      "amp": 2297,
      "Gemein": 2298,
      "ball": 2299,
      "video": 2300,
      "chan": 2301,
      "spiel": 2302,
      "undheit": 2303,
      "Schr": 2304,
      "braucht": 2305,
      "idd": 2306,
      "verschieden": 2307,
      "90": 2308,
      "ismus": 2309,
      "saying": 2310,
      "ändert": 2311,
      "train": 2312,
      "ähr": 2313,
      "schn": 2314,
      "must": 2315,
      "yet": 2316,
      "recht": 2317,
      "ily": 2318,
      "bisschen": 2319,
      "beim": 2320,
      "while": 2321,
      "isches": 2322,
      "dise": 2323,
      "icult": 2324,
      "ages": 2325,
      "hlt": 2326,
      "cost": 2327,
      "icher": 2328,
      "pers": 2329,
      "lö": 2330,
      "iety": 2331,
      "liegt": 2332,
      "ail": 2333,
      "universe": 2334,
      "deut": 2335,
      "class": 2336,
      "patient": 2337,
      "gal": 2338,
      "national": 2339,
      "richtig": 2340,
      "state": 2341,
      "almost": 2342,
      "house": 2343,
      "lange": 2344,
      "Stadt": 2345,
      "som": 2346,
      "anzu": 2347,
      "mass": 2348,
      "incred": 2349,
      "Probleme": 2350,
      "ca": 2351,
      "ament": 2352,
      "Sta": 2353,
      "autif": 2354,
      "70": 2355,
      "began": 2356,
      "cancer": 2357,
      "Projekt": 2358,
      "higkeit": 2359,
      "Kunst": 2360,
      "konnten": 2361,
      "ünst": 2362,
      "verk": 2363,
      "amaz": 2364,
      "true": 2365,
      "present": 2366,
      "dau": 2367,
      "chang": 2368,
      "extre": 2369,
      "flo": 2370,
      "research": 2371,
      "Schul": 2372,
      "begann": 2373,
      "falls": 2374,
      "send": 2375,
      "Foto": 2376,
      "individ": 2377,
      "ott": 2378,
      "Am": 2379,
      "beautif": 2380,
      "city": 2381,
      "girl": 2382,
      "mic": 2383,
      "ware": 2384,
      "chs": 2385,
      "demo": 2386,
      "ues": 2387,
      "wachsen": 2388,
      "Män": 2389,
      "oce": 2390,
      "Patient": 2391,
      "Af": 2392,
      "treat": 2393,
      "äft": 2394,
      "indem": 2395,
      "heard": 2396,
      "wert": 2397,
      "both": 2398,
      "suc": 2399,
      "genug": 2400,
      "posit": 2401,
      "sure": 2402,
      "nothing": 2403,
      "Form": 2404,
      "fund": 2405,
      "gets": 2406,
      "nutzen": 2407,
      "offe": 2408,
      "kelt": 2409,
      "remember": 2410,
      "ames": 2411,
      "sw": 2412,
      "aren": 2413,
      "zehn": 2414,
      "once": 2415,
      "oman": 2416,
      "folgen": 2417,
      "nächsten": 2418,
      "16": 2419,
      "Stra": 2420,
      "rot": 2421,
      "que": 2422,
      "adition": 2423,
      "arr": 2424,
      "gehört": 2425,
      "exact": 2426,
      "piece": 2427,
      "God": 2428,
      "outh": 2429,
      "Afrika": 2430,
      "iddle": 2431,
      "a_": 2432,
      "Ideen": 2433,
      "ury": 2434,
      "looked": 2435,
      "Mensch": 2436,
      "hinter": 2437,
      "animals": 2438,
      "public": 2439,
      "night": 2440,
      "ield": 2441,
      "zentr": 2442,
      "defin": 2443,
      "chmal": 2444,
      "Gesundheit": 2445,
      "reden": 2446,
      "Lehr": 2447,
      "fäll": 2448,
      "matter": 2449,
      "Exper": 2450,
      "Nicht": 2451,
      "engine": 2452,
      "already": 2453,
      "wusst": 2454,
      "cells": 2455,
      "appe": 2456,
      "typ": 2457,
      "unserem": 2458,
      "passion": 2459,
      "ammen": 2460,
      "fragen": 2461,
      "ziehen": 2462,
      "helfen": 2463,
      "Bü": 2464,
      "bracht": 2465,
      "unch": 2466,
      "sozial": 2467,
      "ders": 2468,
      "Arten": 2469,
      "immen": 2470,
      "hold": 2471,
      "built": 2472,
      "couple": 2473,
      "amazing": 2474,
      "glichen": 2475,
      "figure": 2476,
      "beautiful": 2477,
      "heart": 2478,
      "genommen": 2479,
      "dessen": 2480,
      "Kopf": 2481,
      "anal": 2482,
      "itte": 2483,
      "ums": 2484,
      "neuen": 2485,
      "ädchen": 2486,
      "sagten": 2487,
      "Milliarden": 2488,
      "text": 2489,
      "schwer": 2490,
      "acy": 2491,
      "Not": 2492,
      "vious": 2493,
      "India": 2494,
      "etimes": 2495,
      "schön": 2496,
      "forder": 2497,
      "iker": 2498,
      "tho": 2499,
      "teilen": 2500,
      "months": 2501,
      "Qu": 2502,
      "erinn": 2503,
      "oc": 2504,
      "zess": 2505,
      "add": 2506,
      "within": 2507,
      "klar": 2508,
      "law": 2509,
      "iele": 2510,
      "ret": 2511,
      "ankheit": 2512,
      "lichkeit": 2513,
      "esell": 2514,
      "sei": 2515,
      "lik": 2516,
      "Gegen": 2517,
      "nature": 2518,
      "14": 2519,
      "por": 2520,
      "ctor": 2521,
      "action": 2522,
      "Bere": 2523,
      "Bed": 2524,
      "Gott": 2525,
      "hält": 2526,
      "seinen": 2527,
      "community": 2528,
      "Selbst": 2529,
      "USA": 2530,
      "ev": 2531,
      "amm": 2532,
      "stead": 2533,
      "language": 2534,
      "Punkt": 2535,
      "pay": 2536,
      "imens": 2537,
      "exc": 2538,
      "Mädchen": 2539,
      "eben": 2540,
      "ling": 2541,
      "oben": 2542,
      "bekann": 2543,
      "everybody": 2544,
      "aneten": 2545,
      "Glück": 2546,
      "Gesell": 2547,
      "myself": 2548,
      "bau": 2549,
      "bevor": 2550,
      "machte": 2551,
      "gangen": 2552,
      "ash": 2553,
      "Nein": 2554,
      "fekt": 2555,
      "pris": 2556,
      "flu": 2557,
      "Planeten": 2558,
      "large": 2559,
      "ature": 2560,
      "nennen": 2561,
      "Every": 2562,
      "gesam": 2563,
      "allow": 2564,
      "gleichen": 2565,
      "Some": 2566,
      "fish": 2567,
      "undred": 2568,
      "ennt": 2569,
      "überall": 2570,
      "Schule": 2571,
      "euch": 2572,
      "often": 2573,
      "tru": 2574,
      "gst": 2575,
      "ett": 2576,
      "Meine": 2577,
      "sex": 2578,
      "tragen": 2579,
      "ateg": 2580,
      "ground": 2581,
      "glück": 2582,
      "anderes": 2583,
      "bare": 2584,
      "fly": 2585,
      "isn": 2586,
      "fant": 2587,
      "satz": 2588,
      "green": 2589,
      "dev": 2590,
      "liches": 2591,
      "Zus": 2592,
      "cut": 2593,
      "heim": 2594,
      "urs": 2595,
      "imagine": 2596,
      "innov": 2597,
      "Leuten": 2598,
      "coll": 2599,
      "findet": 2600,
      "Für": 2601,
      "words": 2602,
      "Gebäu": 2603,
      "clear": 2604,
      "spend": 2605,
      "Minuten": 2606,
      "alen": 2607,
      "systems": 2608,
      "Mode": 2609,
      "entwickelt": 2610,
      "government": 2611,
      "word": 2612,
      "Indien": 2613,
      "decided": 2614,
      "develop": 2615,
      "aden": 2616,
      "bind": 2617,
      "ücken": 2618,
      "clim": 2619,
      "cir": 2620,
      "äche": 2621,
      "icken": 2622,
      "s_": 2623,
      "United": 2624,
      "hundred": 2625,
      "lin": 2626,
      "erklär": 2627,
      "ases": 2628,
      "jede": 2629,
      "schwier": 2630,
      "close": 2631,
      "ilo": 2632,
      "großart": 2633,
      "itz": 2634,
      "species": 2635,
      "ake": 2636,
      "lon": 2637,
      "though": 2638,
      "verändern": 2639,
      "IV": 2640,
      "Kön": 2641,
      "öhn": 2642,
      "alter": 2643,
      "sequ": 2644,
      "Ur": 2645,
      "emot": 2646,
      "mess": 2647,
      "trie": 2648,
      "fert": 2649,
      "arbeite": 2650,
      "ße": 2651,
      "schre": 2652,
      "Antwort": 2653,
      "arbeitet": 2654,
      "ban": 2655,
      "Dieses": 2656,
      "Then": 2657,
      "third": 2658,
      "arm": 2659,
      "complex": 2660,
      "17": 2661,
      "link": 2662,
      "dent": 2663,
      "wasn": 2664,
      "jen": 2665,
      "err": 2666,
      "schließ": 2667,
      "quick": 2668,
      "ians": 2669,
      "challen": 2670,
      "Geschichten": 2671,
      "discover": 2672,
      "archite": 2673,
      "exactly": 2674,
      "ugen": 2675,
      "leich": 2676,
      "hle": 2677,
      "Car": 2678,
      "fu": 2679,
      "entire": 2680,
      "Weil": 2681,
      "darum": 2682,
      "beha": 2683,
      "acter": 2684,
      "places": 2685,
      "ahn": 2686,
      "ultur": 2687,
      "group": 2688,
      "ries": 2689,
      "gerne": 2690,
      "minutes": 2691,
      "stories": 2692,
      "stat": 2693,
      "iti": 2694,
      "techn": 2695,
      "terr": 2696,
      "someone": 2697,
      "relig": 2698,
      "gress": 2699,
      "turns": 2700,
      "dir": 2701,
      "utzt": 2702,
      "suchen": 2703,
      "Lös": 2704,
      "key": 2705,
      "ctive": 2706,
      "ibly": 2707,
      "pic": 2708,
      "anzen": 2709,
      "taking": 2710,
      "musste": 2711,
      "happy": 2712,
      "tend": 2713,
      "nee": 2714,
      "cons": 2715,
      "Flug": 2716,
      "Ye": 2717,
      "incre": 2718,
      "Char": 2719,
      "aun": 2720,
      "ared": 2721,
      "oil": 2722,
      "West": 2723,
      "appro": 2724,
      "Fähigkeit": 2725,
      "completely": 2726,
      "ush": 2727,
      "meet": 2728,
      "ivil": 2729,
      "until": 2730,
      "Netz": 2731,
      "fang": 2732,
      "seinem": 2733,
      "transp": 2734,
      "won": 2735,
      "game": 2736,
      "Familie": 2737,
      "Ho": 2738,
      "Krie": 2739,
      "eins": 2740,
      "benutzen": 2741,
      "emp": 2742,
      "kinds": 2743,
      "America": 2744,
      "bereit": 2745,
      "druck": 2746,
      "object": 2747,
      "Lin": 2748,
      "free": 2749,
      "Oder": 2750,
      "var": 2751,
      "itself": 2752,
      "became": 2753,
      "ourselves": 2754,
      "Erfahr": 2755,
      "happening": 2756,
      "Bilder": 2757,
      "ände": 2758,
      "share": 2759,
      "HIV": 2760,
      "erkennen": 2761,
      "zept": 2762,
      "Forsch": 2763,
      "Goo": 2764,
      "woman": 2765,
      "schau": 2766,
      "ihrem": 2767,
      "Gener": 2768,
      "Bab": 2769,
      "name": 2770,
      "wend": 2771,
      "Jahrhunder": 2772,
      "namens": 2773,
      "huge": 2774,
      "istan": 2775,
      "ähn": 2776,
      "sechs": 2777,
      "iste": 2778,
      "news": 2779,
      "bereits": 2780,
      "dete": 2781,
      "Fragen": 2782,
      "wär": 2783,
      "gang": 2784,
      "Film": 2785,
      "dich": 2786,
      "cool": 2787,
      "Arch": 2788,
      "besonders": 2789,
      "verschiedene": 2790,
      "success": 2791,
      "foc": 2792,
      "super": 2793,
      "Zusammen": 2794,
      "ired": 2795,
      "kamen": 2796,
      "Vielleicht": 2797,
      "past": 2798,
      "comput": 2799,
      "Schw": 2800,
      "States": 2801,
      "hind": 2802,
      "ingen": 2803,
      "ples": 2804,
      "Ty": 2805,
      "lä": 2806,
      "guys": 2807,
      "American": 2808,
      "ordin": 2809,
      "bir": 2810,
      "eren": 2811,
      "amo": 2812,
      "John": 2813,
      "ides": 2814,
      "gewöhn": 2815,
      "haupt": 2816,
      "disease": 2817,
      "Che": 2818,
      "dom": 2819,
      "zung": 2820,
      "aud": 2821,
      "Beweg": 2822,
      "Video": 2823,
      "ike": 2824,
      "redu": 2825,
      "auszu": 2826,
      "ließen": 2827,
      "Informationen": 2828,
      "whether": 2829,
      "ron": 2830,
      "ager": 2831,
      "dy": 2832,
      "tool": 2833,
      "genann": 2834,
      "themselves": 2835,
      "relation": 2836,
      "Con": 2837,
      "richten": 2838,
      "erreichen": 2839,
      "field": 2840,
      "main": 2841,
      "Su": 2842,
      "nisse": 2843,
      "behavi": 2844,
      "Can": 2845,
      "Hil": 2846,
      "dest": 2847,
      "tens": 2848,
      "film": 2849,
      "evolution": 2850,
      "liter": 2851,
      "ühr": 2852,
      "learned": 2853,
      "mark": 2854,
      "fully": 2855,
      "somebody": 2856,
      "gefunden": 2857,
      "since": 2858,
      "cities": 2859,
      "event": 2860,
      "pred": 2861,
      "lots": 2862,
      "diff": 2863,
      "Sü": 2864,
      "ante": 2865,
      "entertain": 2866,
      "Stu": 2867,
      "Krankheit": 2868,
      "hätten": 2869,
      "short": 2870,
      "father": 2871,
      "Google": 2872,
      "death": 2873,
      "cogn": 2874,
      "market": 2875,
      "company": 2876,
      "friend": 2877,
      "hmen": 2878,
      "couldn": 2879,
      "hours": 2880,
      "ials": 2881,
      "seven": 2882,
      "bewegen": 2883,
      "ifen": 2884,
      "oftware": 2885,
      "bild": 2886,
      "meas": 2887,
      "wards": 2888,
      "worked": 2889,
      "cks": 2890,
      "natural": 2891,
      "society": 2892,
      "Richt": 2893,
      "nt": 2894,
      "century": 2895,
      "!\"": 2896,
      "punkt": 2897,
      "communic": 2898,
      "affen": 2899,
      "astic": 2900,
      "Pre": 2901,
      "genet": 2902,
      "pel": 2903,
      "darin": 2904,
      "knew": 2905,
      "listen": 2906,
      "along": 2907,
      "leb": 2908,
      "lossen": 2909,
      "ublik": 2910,
      "Macht": 2911,
      "aver": 2912,
      "rate": 2913,
      "team": 2914,
      "tradition": 2915,
      "ienen": 2916,
      "Unternehmen": 2917,
      "Robo": 2918,
      "friends": 2919,
      "Vater": 2920,
      "Gruppe": 2921,
      "geln": 2922,
      "nahmen": 2923,
      "beein": 2924,
      "students": 2925,
      "stoff": 2926,
      "ney": 2927,
      "ished": 2928,
      "ford": 2929,
      "on_": 2930,
      "anger": 2931,
      "Verhalten": 2932,
      "chem": 2933,
      "sym": 2934,
      "rather": 2935,
      "organis": 2936,
      "500": 2937,
      "bat": 2938,
      "els": 2939,
      "izin": 2940,
      "created": 2941,
      "study": 2942,
      "lead": 2943,
      "Gefühl": 2944,
      "rieben": 2945,
      "jedem": 2946,
      "vorstellen": 2947,
      "logy": 2948,
      "band": 2949,
      "gave": 2950,
      "lung": 2951,
      "Fol": 2952,
      "Luft": 2953,
      "deal": 2954,
      "ource": 2955,
      "Stunden": 2956,
      "shar": 2957,
      "Di": 2958,
      "bie": 2959,
      "everyone": 2960,
      "akter": 2961,
      "learning": 2962,
      "frü": 2963,
      "priv": 2964,
      "haps": 2965,
      "explain": 2966,
      "13": 2967,
      "zug": 2968,
      "extra": 2969,
      "telling": 2970,
      "turned": 2971,
      "niemand": 2972,
      "questions": 2973,
      "irgendwie": 2974,
      "gere": 2975,
      "squ": 2976,
      "ony": 2977,
      "lebt": 2978,
      "phone": 2979,
      "vision": 2980,
      "einzige": 2981,
      "Wort": 2982,
      "Verbind": 2983,
      "takes": 2984,
      "portun": 2985,
      "bringt": 2986,
      "bald": 2987,
      "Bau": 2988,
      "Masch": 2989,
      "lose": 2990,
      "ausge": 2991,
      "standen": 2992,
      "Na": 2993,
      "Sachen": 2994,
      "ules": 2995,
      "Kultur": 2996,
      "Vir": 2997,
      "kä": 2998,
      "igten": 2999,
      "Bei": 3000,
      "gebaut": 3001,
      "media": 3002,
      "least": 3003,
      "machine": 3004,
      "entertainment": 3005,
      "sl": 3006,
      "Stück": 3007,
      "wissenschaft": 3008,
      "Durch": 3009,
      "Herz": 3010,
      "Ergeb": 3011,
      "une": 3012,
      "beiden": 3013,
      "scheiden": 3014,
      "sometimes": 3015,
      "lker": 3016,
      "orgen": 3017,
      "wirtschaft": 3018,
      "early": 3019,
      "wollten": 3020,
      "ässt": 3021,
      "Gal": 3022,
      "Lassen": 3023,
      "istic": 3024,
      "known": 3025,
      "respon": 3026,
      "Patienten": 3027,
      "erhalten": 3028,
      "onen": 3029,
      "posed": 3030,
      "intell": 3031,
      "area": 3032,
      "prote": 3033,
      "iken": 3034,
      "apan": 3035,
      "Sprache": 3036,
      "experiment": 3037,
      "bon": 3038,
      "mill": 3039,
      "ünd": 3040,
      "opportun": 3041,
      "Stre": 3042,
      "scale": 3043,
      "Gebäude": 3044,
      "gas": 3045,
      "pas": 3046,
      "ros": 3047,
      "Web": 3048,
      "difference": 3049,
      "öffent": 3050,
      "stit": 3051,
      "stüt": 3052,
      "follow": 3053,
      "itting": 3054,
      "difficult": 3055,
      "Fir": 3056,
      "mis": 3057,
      "besten": 3058,
      "igung": 3059,
      "graf": 3060,
      "fühlen": 3061,
      "wonderful": 3062,
      "zä": 3063,
      "against": 3064,
      "Tal": 3065,
      "Wh": 3066,
      "eight": 3067,
      "kill": 3068,
      "non": 3069,
      "mole": 3070,
      "moving": 3071,
      "hler": 3072,
      "Freund": 3073,
      "Tod": 3074,
      "jour": 3075,
      "ina": 3076,
      "ktiv": 3077,
      "Nat": 3078,
      "speak": 3079,
      "ither": 3080,
      "stu": 3081,
      "agr": 3082,
      "telle": 3083,
      "Krebs": 3084,
      "ocean": 3085,
      "Dav": 3086,
      "einigen": 3087,
      "beginnen": 3088,
      "sug": 3089,
      "image": 3090,
      "vorher": 3091,
      "scheid": 3092,
      "moral": 3093,
      "unglaublich": 3094,
      "schnitt": 3095,
      "Res": 3096,
      "ucht": 3097,
      "walk": 3098,
      "Ist": 3099,
      "Just": 3100,
      "Kor": 3101,
      "erwar": 3102,
      "Program": 3103,
      "taken": 3104,
      "digital": 3105,
      "Doch": 3106,
      "reen": 3107,
      "ingt": 3108,
      "schreiben": 3109,
      "getan": 3110,
      "iben": 3111,
      "zeugen": 3112,
      "überhaupt": 3113,
      "unterschied": 3114,
      "Material": 3115,
      "anten": 3116,
      "issue": 3117,
      "entwickeln": 3118,
      "sent": 3119,
      "invol": 3120,
      "indust": 3121,
      "Kindern": 3122,
      "einzel": 3123,
      "kurz": 3124,
      "verr": 3125,
      "ama": 3126,
      "uster": 3127,
      "foot": 3128,
      "changed": 3129,
      "verwenden": 3130,
      "step": 3131,
      "manchmal": 3132,
      "wood": 3133,
      "Don": 3134,
      "middle": 3135,
      "died": 3136,
      "schö": 3137,
      "needs": 3138,
      "People": 3139,
      "Eltern": 3140,
      "Hause": 3141,
      "arg": 3142,
      "outside": 3143,
      "pattern": 3144,
      "Gesellschaft": 3145,
      "Yeah": 3146,
      "contr": 3147,
      "uppen": 3148,
      "Angst": 3149,
      "stellte": 3150,
      "199": 3151,
      "personal": 3152,
      "scheint": 3153,
      "Stru": 3154,
      "Sicher": 3155,
      "fän": 3156,
      "rech": 3157,
      "bemer": 3158,
      "verändert": 3159,
      "relationship": 3160,
      "eyes": 3161,
      "invent": 3162,
      "recent": 3163,
      "rote": 3164,
      "board": 3165,
      "obvious": 3166,
      "paper": 3167,
      "medic": 3168,
      "interested": 3169,
      "Lehrer": 3170,
      "David": 3171,
      "enzen": 3172,
      "inal": 3173,
      "west": 3174,
      "easy": 3175,
      "ller": 3176,
      "liz": 3177,
      "Studen": 3178,
      "bestimm": 3179,
      "Regierung": 3180,
      "menschlichen": 3181,
      "Organis": 3182,
      "Männer": 3183,
      "Bereich": 3184,
      "Wel": 3185,
      "laufen": 3186,
      "tut": 3187,
      "Stud": 3188,
      "Uns": 3189,
      "Techn": 3190,
      "black": 3191,
      "Dieser": 3192,
      "versucht": 3193,
      "Hau": 3194,
      "Ju": 3195,
      "zte": 3196,
      "deep": 3197,
      "based": 3198,
      "häng": 3199,
      "thousands": 3200,
      "Har": 3201,
      "May": 3202,
      "tion": 3203,
      "berfl": 3204,
      "Essen": 3205,
      "others": 3206,
      "verschiedenen": 3207,
      "nimmt": 3208,
      "bewe": 3209,
      "utions": 3210,
      "common": 3211,
      "Werk": 3212,
      "World": 3213,
      "Fahr": 3214,
      "fern": 3215,
      "onnen": 3216,
      "reicht": 3217,
      "seeing": 3218,
      "mathemat": 3219,
      "Gew": 3220,
      "stens": 3221,
      "population": 3222,
      "Struktur": 3223,
      "Zum": 3224,
      "fur": 3225,
      "gaben": 3226,
      "jähr": 3227,
      "ision": 3228,
      "lässt": 3229,
      "leave": 3230,
      "zustellen": 3231,
      "lesen": 3232,
      "behavior": 3233,
      "Sinn": 3234,
      "jor": 3235,
      "behind": 3236,
      "ils": 3237,
      "blue": 3238,
      "ächt": 3239,
      "buy": 3240,
      "treffen": 3241,
      "psycho": 3242,
      "ID": 3243,
      "Part": 3244,
      "impro": 3245,
      "potent": 3246,
      "Länder": 3247,
      "lern": 3248,
      "orig": 3249,
      "deck": 3250,
      "traf": 3251,
      "werk": 3252,
      "Veränder": 3253,
      "yourself": 3254,
      "path": 3255,
      "Roboter": 3256,
      "Hö": 3257,
      "box": 3258,
      "week": 3259,
      "given": 3260,
      "heut": 3261,
      "consum": 3262,
      "arts": 3263,
      "Universum": 3264,
      "innerhalb": 3265,
      "sun": 3266,
      "enor": 3267,
      "during": 3268,
      "nal": 3269,
      "cannot": 3270,
      "brachte": 3271,
      "cont": 3272,
      "Stellen": 3273,
      "lösen": 3274,
      "itä": 3275,
      "enter": 3276,
      "produz": 3277,
      "fair": 3278,
      "ior": 3279,
      "igte": 3280,
      "grand": 3281,
      "Meer": 3282,
      "amera": 3283,
      "absolute": 3284,
      "mult": 3285,
      "road": 3286,
      "interessant": 3287,
      "Pap": 3288,
      "uses": 3289,
      "ctions": 3290,
      "grad": 3291,
      "syn": 3292,
      "uß": 3293,
      "erweise": 3294,
      "außen": 3295,
      "Bezie": 3296,
      "break": 3297,
      "kraft": 3298,
      "Sh": 3299,
      "Wä": 3300,
      "rup": 3301,
      "Öl": 3302,
      "ilen": 3303,
      "aster": 3304,
      "weitere": 3305,
      "parts": 3306,
      "instead": 3307,
      "reach": 3308,
      "aul": 3309,
      "Prozess": 3310,
      "gy": 3311,
      "size": 3312,
      "tele": 3313,
      "parents": 3314,
      "Sk": 3315,
      "afe": 3316,
      "lieben": 3317,
      "Umwelt": 3318,
      "books": 3319,
      "beginning": 3320,
      "äume": 3321,
      "Lage": 3322,
      "verb": 3323,
      "Anfang": 3324,
      "Rest": 3325,
      "nächste": 3326,
      "finally": 3327,
      "Entwicklung": 3328,
      "Mik": 3329,
      "krie": 3330,
      "material": 3331,
      "prim": 3332,
      "visual": 3333,
      "Publik": 3334,
      "kennt": 3335,
      "lam": 3336,
      "draw": 3337,
      "bleiben": 3338,
      "sterben": 3339,
      "born": 3340,
      "fac": 3341,
      "orie": 3342,
      "vert": 3343,
      "terms": 3344,
      "auft": 3345,
      "mögen": 3346,
      "Ke": 3347,
      "haus": 3348,
      "gegeben": 3349,
      "änger": 3350,
      "Ziel": 3351,
      "bill": 3352,
      "ses": 3353,
      "ieden": 3354,
      "itive": 3355,
      "Ap": 3356,
      "online": 3357,
      "gleiche": 3358,
      "krat": 3359,
      "powerful": 3360,
      "Right": 3361,
      "inspir": 3362,
      "thet": 3363,
      "oud": 3364,
      "beob": 3365,
      "uren": 3366,
      "perfect": 3367,
      "Wochen": 3368,
      "piele": 3369,
      "eff": 3370,
      "unten": 3371,
      "alität": 3372,
      "feet": 3373,
      "pose": 3374,
      "Entscheid": 3375,
      "profess": 3376,
      "gabe": 3377,
      "Gleich": 3378,
      "aufzu": 3379,
      "map": 3380,
      "völker": 3381,
      "perhaps": 3382,
      "drug": 3383,
      "folg": 3384,
      "Japan": 3385,
      "ücke": 3386,
      "kehr": 3387,
      "amount": 3388,
      "Per": 3389,
      "gone": 3390,
      "incl": 3391,
      "tete": 3392,
      "igned": 3393,
      "hands": 3394,
      "ständig": 3395,
      "Dis": 3396,
      "hiel": 3397,
      "shows": 3398,
      "letzte": 3399,
      "street": 3400,
      "longer": 3401,
      "Kur": 3402,
      "ond": 3403,
      "tried": 3404,
      "Som": 3405,
      "Wal": 3406,
      "ente": 3407,
      "inz": 3408,
      "ouch": 3409,
      "pet": 3410,
      "adv": 3411,
      "major": 3412,
      "nahm": 3413,
      "nämlich": 3414,
      "Tage": 3415,
      "cop": 3416,
      "wall": 3417,
      "zin": 3418,
      "ams": 3419,
      "menschliche": 3420,
      "Fort": 3421,
      "ali": 3422,
      "expect": 3423,
      "pract": 3424,
      "Tier": 3425,
      "kil": 3426,
      "auto": 3427,
      "prom": 3428,
      "structure": 3429,
      "fine": 3430,
      "stay": 3431,
      "deren": 3432,
      "icks": 3433,
      "Städ": 3434,
      "Tages": 3435,
      "nahme": 3436,
      "äsent": 3437,
      "mä": 3438,
      "curr": 3439,
      "Europe": 3440,
      "kaufen": 3441,
      "robot": 3442,
      "falsch": 3443,
      "needed": 3444,
      "ences": 3445,
      "local": 3446,
      "force": 3447,
      "schließlich": 3448,
      "Tiere": 3449,
      "aktion": 3450,
      "tat": 3451,
      "usion": 3452,
      "prov": 3453,
      "Bes": 3454,
      "wn": 3455,
      "Dingen": 3456,
      "situ": 3457,
      "Demo": 3458,
      "growth": 3459,
      "amerikan": 3460,
      "eher": 3461,
      "cts": 3462,
      "plant": 3463,
      "hosp": 3464,
      "Heraus": 3465,
      "fragte": 3466,
      "aid": 3467,
      "afr": 3468,
      "urt": 3469,
      "langsam": 3470,
      "Oze": 3471,
      "bert": 3472,
      "Sek": 3473,
      "idence": 3474,
      "special": 3475,
      "Denken": 3476,
      "sät": 3477,
      "thes": 3478,
      "anach": 3479,
      "alien": 3480,
      "Gedanken": 3481,
      "extreme": 3482,
      "Erfahrung": 3483,
      "inen": 3484,
      "rec": 3485,
      "Unterschied": 3486,
      "biology": 3487,
      "stage": 3488,
      "entr": 3489,
      "modern": 3490,
      "ustain": 3491,
      "wusste": 3492,
      "gern": 3493,
      "ghan": 3494,
      "Versuch": 3495,
      "Yes": 3496,
      "eat": 3497,
      "mechan": 3498,
      "surv": 3499,
      "fanden": 3500,
      "tz": 3501,
      "gebracht": 3502,
      "mussten": 3503,
      "damals": 3504,
      "quickly": 3505,
      "Rich": 3506,
      "Situ": 3507,
      "zwar": 3508,
      "allem": 3509,
      "eigene": 3510,
      "viol": 3511,
      "Kap": 3512,
      "feed": 3513,
      "micro": 3514,
      "tag": 3515,
      "wit": 3516,
      "hervor": 3517,
      "Sicherheit": 3518,
      "Herausforder": 3519,
      "CO": 3520,
      "Hy": 3521,
      "allo": 3522,
      "worth": 3523,
      "baren": 3524,
      "compan": 3525,
      "_of": 3526,
      "ght": 3527,
      "lost": 3528,
      "lip": 3529,
      "Schwe": 3530,
      "simply": 3531,
      "Mittel": 3532,
      "politics": 3533,
      "value": 3534,
      "sichtlich": 3535,
      "Publikum": 3536,
      "sell": 3537,
      "weiten": 3538,
      "Kranken": 3539,
      "Staaten": 3540,
      "Mag": 3541,
      "passen": 3542,
      "forward": 3543,
      "Sehen": 3544,
      "electric": 3545,
      "Archite": 3546,
      "ming": 3547,
      "anderer": 3548,
      "Woche": 3549,
      "weeks": 3550,
      "position": 3551,
      "24": 3552,
      "Job": 3553,
      "Mot": 3554,
      "ering": 3555,
      "sieben": 3556,
      "liebe": 3557,
      "Grunde": 3558,
      "reality": 3559,
      "Gesicht": 3560,
      "fortun": 3561,
      "schafts": 3562,
      "surface": 3563,
      "Ben": 3564,
      "felt": 3565,
      "ibe": 3566,
      "kn": 3567,
      "sollen": 3568,
      "meines": 3569,
      "animal": 3570,
      "explo": 3571,
      "300": 3572,
      "rat": 3573,
      "stein": 3574,
      "fragt": 3575,
      "dark": 3576,
      "write": 3577,
      "direkt": 3578,
      "happiness": 3579,
      "Hilfe": 3580,
      "Kol": 3581,
      "ump": 3582,
      "post": 3583,
      "möglichen": 3584,
      "economic": 3585,
      "Nahr": 3586,
      "gefühl": 3587,
      "verd": 3588,
      "ention": 3589,
      "trä": 3590,
      "whatever": 3591,
      "app": 3592,
      "Wirtschaft": 3593,
      "okay": 3594,
      "Verein": 3595,
      "größte": 3596,
      "Polit": 3597,
      "21": 3598,
      "Mil": 3599,
      "rele": 3600,
      "descr": 3601,
      "Plan": 3602,
      "jedoch": 3603,
      "Kü": 3604,
      "Mars": 3605,
      "Wand": 3606,
      "uld": 3607,
      "acks": 3608,
      "Phil": 3609,
      "fliegen": 3610,
      "versch": 3611,
      "type": 3612,
      "Markt": 3613,
      "incredible": 3614,
      "medicine": 3615,
      "bol": 3616,
      "sitting": 3617,
      "ückt": 3618,
      "selben": 3619,
      "füg": 3620,
      "erstaun": 3621,
      "Modell": 3622,
      "imme": 3623,
      "realized": 3624,
      "bottom": 3625,
      "measure": 3626,
      "average": 3627,
      "dad": 3628,
      "itet": 3629,
      "itze": 3630,
      "isse": 3631,
      "achtet": 3632,
      "bene": 3633,
      "poor": 3634,
      "scious": 3635,
      "climate": 3636,
      "Fin": 3637,
      "Ken": 3638,
      "itions": 3639,
      "bewusst": 3640,
      "geführt": 3641,
      "dep": 3642,
      "ival": 3643,
      "klein": 3644,
      "fluss": 3645,
      "ards": 3646,
      "Lösung": 3647,
      "ude": 3648,
      "spent": 3649,
      "zellen": 3650,
      "funktionieren": 3651,
      "zweite": 3652,
      "Möglichkeiten": 3653,
      "risk": 3654,
      "fundament": 3655,
      "Zahl": 3656,
      "begr": 3657,
      "result": 3658,
      "spricht": 3659,
      "Ster": 3660,
      "fight": 3661,
      "pur": 3662,
      "ri": 3663,
      "chsel": 3664,
      "repr": 3665,
      "llig": 3666,
      "enten": 3667,
      "wouldn": 3668,
      "Kraft": 3669,
      "betrachten": 3670,
      "access": 3671,
      "stet": 3672,
      "zeige": 3673,
      "kleiner": 3674,
      "schwierig": 3675,
      "Ph": 3676,
      "fallen": 3677,
      "erlau": 3678,
      "orge": 3679,
      "sever": 3680,
      "behand": 3681,
      "werfen": 3682,
      "Rei": 3683,
      "resp": 3684,
      "miles": 3685,
      "Tre": 3686,
      "Tex": 3687,
      "uh": 3688,
      "tot": 3689,
      "weis": 3690,
      "zogen": 3691,
      "cin": 3692,
      "frei": 3693,
      "hnen": 3694,
      "esse": 3695,
      "scht": 3696,
      "near": 3697,
      "compassion": 3698,
      "antwor": 3699,
      "conscious": 3700,
      "Stand": 3701,
      "izing": 3702,
      "Monate": 3703,
      "ötzlich": 3704,
      "schlecht": 3705,
      "glücklich": 3706,
      "recogn": 3707,
      "ouble": 3708,
      "schüt": 3709,
      "mosp": 3710,
      "Boden": 3711,
      "pression": 3712,
      "molec": 3713,
      "phen": 3714,
      "sustain": 3715,
      "wish": 3716,
      "ley": 3717,
      "affe": 3718,
      "Thema": 3719,
      "Freunde": 3720,
      "dimens": 3721,
      "inos": 3722,
      "org": 3723,
      "ults": 3724,
      "obwohl": 3725,
      "Mich": 3726,
      "loc": 3727,
      "cars": 3728,
      "computers": 3729,
      "buch": 3730,
      "either": 3731,
      "ktor": 3732,
      "rieb": 3733,
      "Bewegung": 3734,
      "tief": 3735,
      "wrote": 3736,
      "sehe": 3737,
      "sende": 3738,
      "knowled": 3739,
      "troll": 3740,
      "Afghan": 3741,
      "bio": 3742,
      "nice": 3743,
      "ana": 3744,
      "unk": 3745,
      "legt": 3746,
      "wohn": 3747,
      "uellen": 3748,
      "serious": 3749,
      "kosten": 3750,
      "support": 3751,
      "berfläche": 3752,
      "og": 3753,
      "ources": 3754,
      "active": 3755,
      "ains": 3756,
      "Zellen": 3757,
      "feeling": 3758,
      "morning": 3759,
      "komplex": 3760,
      "Bas": 3761,
      "Bar": 3762,
      "auth": 3763,
      "abhäng": 3764,
      "ently": 3765,
      "hast": 3766,
      "bitte": 3767,
      "Natürlich": 3768,
      "South": 3769,
      "messen": 3770,
      "theory": 3771,
      "brought": 3772,
      "hood": 3773,
      "solche": 3774,
      "Autos": 3775,
      "innovation": 3776,
      "Eis": 3777,
      "National": 3778,
      "Rel": 3779,
      "inne": 3780,
      "thank": 3781,
      "atic": 3782,
      "stra": 3783,
      "Ihren": 3784,
      "bekannt": 3785,
      "benöt": 3786,
      "tures": 3787,
      "genauso": 3788,
      "growing": 3789,
      "Klim": 3790,
      "positive": 3791,
      "Super": 3792,
      "Unsere": 3793,
      "Fern": 3794,
      "Sto": 3795,
      "neur": 3796,
      "antwort": 3797,
      "wären": 3798,
      "geboren": 3799,
      "erstör": 3800,
      "Alles": 3801,
      "distr": 3802,
      "Look": 3803,
      "Liebe": 3804,
      "mine": 3805,
      "ras": 3806,
      "onto": 3807,
      "besteht": 3808,
      "ibility": 3809,
      "persön": 3810,
      "development": 3811,
      "Pfl": 3812,
      "mache": 3813,
      "hinein": 3814,
      "humans": 3815,
      "gebung": 3816,
      "IDS": 3817,
      "cu": 3818,
      "dro": 3819,
      "Instit": 3820,
      "Chris": 3821,
      "Our": 3822,
      "Zug": 3823,
      "cing": 3824,
      "gives": 3825,
      "rich": 3826,
      "slow": 3827,
      "sta": 3828,
      "optim": 3829,
      "economy": 3830,
      "Lon": 3831,
      "arten": 3832,
      "gefähr": 3833,
      "essent": 3834,
      "male": 3835,
      "ünstler": 3836,
      "City": 3837,
      "eth": 3838,
      "emer": 3839,
      "lab": 3840,
      "lay": 3841,
      "late": 3842,
      "useum": 3843,
      "sud": 3844,
      "writing": 3845,
      "East": 3846,
      "Labor": 3847,
      "Namen": 3848,
      "las": 3849,
      "tu": 3850,
      "inger": 3851,
      "zuvor": 3852,
      "ilar": 3853,
      "prec": 3854,
      "creativity": 3855,
      "blood": 3856,
      "Familien": 3857,
      "Schritt": 3858,
      "inzip": 3859,
      "mater": 3860,
      "univers": 3861,
      "wart": 3862,
      "Alter": 3863,
      "Revolution": 3864,
      "shape": 3865,
      "mission": 3866,
      "sudden": 3867,
      "vill": 3868,
      "verschw": 3869,
      "Mathemat": 3870,
      "English": 3871,
      "changes": 3872,
      "approach": 3873,
      "opportunity": 3874,
      "Hoff": 3875,
      "giving": 3876,
      "wann": 3877,
      "inv": 3878,
      "peace": 3879,
      "aussehen": 3880,
      "zeuge": 3881,
      "aged": 3882,
      "color": 3883,
      "ften": 3884,
      "sil": 3885,
      "town": 3886,
      "passieren": 3887,
      "count": 3888,
      "transform": 3889,
      "Jeder": 3890,
      "Verbindung": 3891,
      "companies": 3892,
      "spread": 3893,
      "playing": 3894,
      "numbers": 3895,
      "running": 3896,
      "gemeinsam": 3897,
      "_of_": 3898,
      "London": 3899,
      "Viele": 3900,
      "revolution": 3901,
      "steme": 3902,
      "ills": 3903,
      "quality": 3904,
      "Heute": 3905,
      "gesetzt": 3906,
      "größten": 3907,
      "Far": 3908,
      "_on_": 3909,
      "iation": 3910,
      "licht": 3911,
      "entscheiden": 3912,
      "gewesen": 3913,
      "welches": 3914,
      "völlig": 3915,
      "beginnt": 3916,
      "Wahrheit": 3917,
      "ordinary": 3918,
      "Ser": 3919,
      "gliche": 3920,
      "zü": 3921,
      "übr": 3922,
      "alone": 3923,
      "verbre": 3924,
      "schwar": 3925,
      "jekte": 3926,
      "teilt": 3927,
      "guess": 3928,
      "starting": 3929,
      "Wissenschaftler": 3930,
      "democr": 3931,
      "genannt": 3932,
      "Haupt": 3933,
      "knowledge": 3934,
      "hang": 3935,
      "pte": 3936,
      "rein": 3937,
      "isst": 3938,
      "total": 3939,
      "schät": 3940,
      "Richtung": 3941,
      "Wert": 3942,
      "ape": 3943,
      "ksam": 3944,
      "images": 3945,
      "discovered": 3946,
      "Red": 3947,
      "Tatsächlich": 3948,
      "nation": 3949,
      "stelle": 3950,
      "aging": 3951,
      "setzt": 3952,
      "favor": 3953,
      "ikaner": 3954,
      "patients": 3955,
      "individual": 3956,
      "collabor": 3957,
      "consider": 3958,
      "Frei": 3959,
      "Kam": 3960,
      "Tit": 3961,
      "geworden": 3962,
      "idge": 3963,
      "frast": 3964,
      "selbe": 3965,
      "center": 3966,
      "alte": 3967,
      "pekt": 3968,
      "draußen": 3969,
      "seems": 3970,
      "izieren": 3971,
      "developed": 3972,
      "instit": 3973,
      "Mikro": 3974,
      "Dam": 3975,
      "Nacht": 3976,
      "Tats": 3977,
      "bank": 3978,
      "benef": 3979,
      "perfor": 3980,
      "activ": 3981,
      "größer": 3982,
      "Jahrhundert": 3983,
      "frastru": 3984,
      "Aben": 3985,
      "tegr": 3986,
      "logen": 3987,
      "grün": 3988,
      "strong": 3989,
      "Blick": 3990,
      "respons": 3991,
      "Met": 3992,
      "eye": 3993,
      "touch": 3994,
      "bekommt": 3995,
      "abr": 3996,
      "scheinen": 3997,
      "hnung": 3998,
      "Vortrag": 3999,
      "technologies": 4000,
      "erklären": 4001,
      "AIDS": 4002,
      "Tat": 4003,
      "ado": 4004,
      "tage": 4005,
      "ators": 4006,
      "white": 4007,
      "kleines": 4008,
      "ends": 4009,
      "gelernt": 4010,
      "igkeiten": 4011,
      "Muster": 4012,
      "sea": 4013,
      "entf": 4014,
      "agieren": 4015,
      "ifft": 4016,
      "fällt": 4017,
      "challenge": 4018,
      "verbunden": 4019,
      "Bür": 4020,
      "Rad": 4021,
      "bist": 4022,
      "iber": 4023,
      "stum": 4024,
      "dead": 4025,
      "kept": 4026,
      "neg": 4027,
      "forn": 4028,
      "prochen": 4029,
      "poin": 4030,
      "pens": 4031,
      "gessen": 4032,
      "political": 4033,
      "changing": 4034,
      "Who": 4035,
      "gain": 4036,
      "xy": 4037,
      "Alle": 4038,
      "unseres": 4039,
      "deckt": 4040,
      "aliforn": 4041,
      "US": 4042,
      "wirk": 4043,
      "agno": 4044,
      "Innov": 4045,
      "realize": 4046,
      "attention": 4047,
      "scientists": 4048,
      "fire": 4049,
      "anfangen": 4050,
      "ived": 4051,
      "Größ": 4052,
      "produce": 4053,
      "holen": 4054,
      "verloren": 4055,
      "Programm": 4056,
      "Kat": 4057,
      "chter": 4058,
      "stie": 4059,
      "ummer": 4060,
      "ades": 4061,
      "Bevölker": 4062,
      "Team": 4063,
      "Amerika": 4064,
      "Technik": 4065,
      "inosaur": 4066,
      ".,": 4067,
      "Hel": 4068,
      "cul": 4069,
      "ehen": 4070,
      "zel": 4071,
      "erschaffen": 4072,
      "itzen": 4073,
      "gezeigt": 4074,
      "icy": 4075,
      "spro": 4076,
      "literally": 4077,
      "Wahl": 4078,
      "nuc": 4079,
      "ichen": 4080,
      "isieren": 4081,
      "einzu": 4082,
      "Stat": 4083,
      "jemals": 4084,
      "Krieg": 4085,
      "400": 4086,
      "Where": 4087,
      "lant": 4088,
      "tö": 4089,
      "llo": 4090,
      "miteinander": 4091,
      "flus": 4092,
      "guten": 4093,
      "marke": 4094,
      "Prof": 4095,
      "gingen": 4096,
      "Christ": 4097,
      "mung": 4098,
      "soon": 4099,
      "ielle": 4100,
      "knows": 4101,
      "möchten": 4102,
      "erinnern": 4103,
      "suggest": 4104,
      "ikel": 4105,
      "enth": 4106,
      "stab": 4107,
      "weder": 4108,
      "areas": 4109,
      "centr": 4110,
      "konzentr": 4111,
      "disc": 4112,
      "trotz": 4113,
      "similar": 4114,
      "Chinese": 4115,
      "impact": 4116,
      "_a_": 4117,
      "cam": 4118,
      "fir": 4119,
      "atten": 4120,
      "bege": 4121,
      "verbess": 4122,
      "haft": 4123,
      "loss": 4124,
      "Wirklich": 4125,
      "Bedeut": 4126,
      "Tele": 4127,
      "Platz": 4128,
      "Brit": 4129,
      "audience": 4130,
      "civil": 4131,
      "ny": 4132,
      "beste": 4133,
      "getr": 4134,
      "Einige": 4135,
      "Medien": 4136,
      "Studenten": 4137,
      "Him": 4138,
      "Nie": 4139,
      "aking": 4140,
      "iod": 4141,
      "uni": 4142,
      "neben": 4143,
      "sonst": 4144,
      "movement": 4145,
      "meln": 4146,
      "zahlen": 4147,
      "nel": 4148,
      "iction": 4149,
      "Technologien": 4150,
      "Experiment": 4151,
      "Bio": 4152,
      "Mc": 4153,
      "ai": 4154,
      "flow": 4155,
      "raus": 4156,
      "sle": 4157,
      "web": 4158,
      "moved": 4159,
      "Verl": 4160,
      "nachdenken": 4161,
      "Tem": 4162,
      "blick": 4163,
      "surpris": 4164,
      "milit": 4165,
      "Dor": 4166,
      "danach": 4167,
      "iate": 4168,
      "sof": 4169,
      "stär": 4170,
      "denkt": 4171,
      "Schauen": 4172,
      "fühle": 4173,
      "Test": 4174,
      "gegenüber": 4175,
      "By": 4176,
      "fassen": 4177,
      "gor": 4178,
      "lagen": 4179,
      "ami": 4180,
      "anyone": 4181,
      "rael": 4182,
      "Blut": 4183,
      "tex": 4184,
      "sold": 4185,
      "pover": 4186,
      "geschrieben": 4187,
      "elektr": 4188,
      "Sym": 4189,
      "absolutely": 4190,
      "Zwe": 4191,
      "games": 4192,
      "mmer": 4193,
      "ille": 4194,
      "designed": 4195,
      "Anzahl": 4196,
      "seem": 4197,
      "connect": 4198,
      "rom": 4199,
      "schrieb": 4200,
      "fear": 4201,
      "nachdem": 4202,
      "avail": 4203,
      "photograph": 4204,
      "verwendet": 4205,
      "Preis": 4206,
      "Wind": 4207,
      "With": 4208,
      "bekam": 4209,
      "mem": 4210,
      "198": 4211,
      "function": 4212,
      "incredibly": 4213,
      "pictures": 4214,
      "nein": 4215,
      "curity": 4216,
      "joy": 4217,
      "Produkt": 4218,
      "architecture": 4219,
      "beeinflus": 4220,
      "Afghanistan": 4221,
      "Gol": 4222,
      "Of": 4223,
      "enden": 4224,
      "ination": 4225,
      "asking": 4226,
      "aufge": 4227,
      "tail": 4228,
      "speed": 4229,
      "crit": 4230,
      "Bildung": 4231,
      "focus": 4232,
      "Situation": 4233,
      "CO2": 4234,
      "Tatsache": 4235,
      "99": 4236,
      "Rück": 4237,
      "unkte": 4238,
      "toll": 4239,
      "neigh": 4240,
      "Medik": 4241,
      "bilden": 4242,
      "Col": 4243,
      "Ländern": 4244,
      "Phys": 4245,
      "solution": 4246,
      "brechen": 4247,
      "fail": 4248,
      "herauszu": 4249,
      "physical": 4250,
      "links": 4251,
      "tools": 4252,
      "Eigen": 4253,
      "kop": 4254,
      "erfol": 4255,
      "haven": 4256,
      "liver": 4257,
      "plötzlich": 4258,
      "Geist": 4259,
      "komme": 4260,
      "Ihrer": 4261,
      "drop": 4262,
      "mann": 4263,
      "wes": 4264,
      "ativ": 4265,
      "verbin": 4266,
      "wasser": 4267,
      "umor": 4268,
      "sens": 4269,
      "daraus": 4270,
      "Teile": 4271,
      "See": 4272,
      "Aufgabe": 4273,
      "showed": 4274,
      "Miss": 4275,
      "Sol": 4276,
      "gent": 4277,
      "pliz": 4278,
      "mance": 4279,
      "intro": 4280,
      "iled": 4281,
      "ried": 4282,
      "trolle": 4283,
      "niemals": 4284,
      "philo": 4285,
      "connected": 4286,
      "komplett": 4287,
      "industry": 4288,
      "entfernt": 4289,
      "poverty": 4290,
      "Fuß": 4291,
      "Hin": 4292,
      "bein": 4293,
      "onstr": 4294,
      "soph": 4295,
      "wider": 4296,
      "proper": 4297,
      "deshalb": 4298,
      "lieb": 4299,
      "travel": 4300,
      "Prinzip": 4301,
      "sprach": 4302,
      "understanding": 4303,
      "generation": 4304,
      "Maschine": 4305,
      "recently": 4306,
      "Reihe": 4307,
      "Sicht": 4308,
      "pan": 4309,
      "zz": 4310,
      "benutzt": 4311,
      "Grün": 4312,
      "interessiert": 4313,
      "unehmen": 4314,
      "Besch": 4315,
      "Fle": 4316,
      "ore": 4317,
      "beide": 4318,
      "merksam": 4319,
      "machten": 4320,
      "drive": 4321,
      "Strom": 4322,
      "Ihrem": 4323,
      "Gemeinschaft": 4324,
      "truth": 4325,
      "Bi": 4326,
      "Wach": 4327,
      "för": 4328,
      "source": 4329,
      "ified": 4330,
      "ference": 4331,
      "ption": 4332,
      "medical": 4333,
      "Genau": 4334,
      "Deshalb": 4335,
      "zeitig": 4336,
      "Hinter": 4337,
      "Häl": 4338,
      "tä": 4339,
      "save": 4340,
      "Maybe": 4341,
      "45": 4342,
      "bom": 4343,
      "pull": 4344,
      "table": 4345,
      "ennen": 4346,
      "Reise": 4347,
      "version": 4348,
      "begin": 4349,
      "hundreds": 4350,
      "Bill": 4351,
      "IT": 4352,
      "Spa": 4353,
      "pul": 4354,
      "van": 4355,
      "olz": 4356,
      "baby": 4357,
      "jemanden": 4358,
      "Psy": 4359,
      "ctors": 4360,
      "talked": 4361,
      "letzt": 4362,
      "forms": 4363,
      "carbon": 4364,
      "bsite": 4365,
      "reasons": 4366,
      "situation": 4367,
      "kor": 4368,
      "len": 4369,
      "user": 4370,
      "boy": 4371,
      "finde": 4372,
      "Umgebung": 4373,
      "meaning": 4374,
      "Meinung": 4375,
      "girls": 4376,
      "Forschung": 4377,
      "sau": 4378,
      "erreicht": 4379,
      "bey": 4380,
      "gebe": 4381,
      "allein": 4382,
      "industr": 4383,
      "iko": 4384,
      "nachzu": 4385,
      "minute": 4386,
      "zero": 4387,
      "North": 4388,
      "Richard": 4389,
      "Aut": 4390,
      "First": 4391,
      "Pal": 4392,
      "bacter": 4393,
      "cially": 4394,
      "evol": 4395,
      "rules": 4396,
      "atom": 4397,
      "door": 4398,
      "heiten": 4399,
      "anybody": 4400,
      "unterstüt": 4401,
      "Geschä": 4402,
      "beschäft": 4403,
      "aktiv": 4404,
      "Größe": 4405,
      "available": 4406,
      "Eink": 4407,
      "Kno": 4408,
      "Will": 4409,
      "list": 4410,
      "sand": 4411,
      "lived": 4412,
      "Hey": 4413,
      "solar": 4414,
      "Mitte": 4415,
      "smart": 4416,
      "Bürger": 4417,
      "sofort": 4418,
      "Mex": 4419,
      "oid": 4420,
      "äh": 4421,
      "ances": 4422,
      "leid": 4423,
      "necess": 4424,
      "period": 4425,
      "shop": 4426,
      "likely": 4427,
      "gesprochen": 4428,
      "sitzen": 4429,
      "creating": 4430,
      "näher": 4431,
      "absolut": 4432,
      "Sc": 4433,
      "Sau": 4434,
      "Von": 4435,
      "icans": 4436,
      "daher": 4437,
      "stark": 4438,
      "bigger": 4439,
      "physics": 4440,
      "histor": 4441,
      "materials": 4442,
      "fam": 4443,
      "stes": 4444,
      "zutage": 4445,
      "umb": 4446,
      "nehmer": 4447,
      "forest": 4448,
      "subject": 4449,
      "device": 4450,
      "Während": 4451,
      "rid": 4452,
      "stimmt": 4453,
      "ales": 4454,
      "requ": 4455,
      "leist": 4456,
      "gekommen": 4457,
      "igent": 4458,
      "trauen": 4459,
      "international": 4460,
      "Meter": 4461,
      "graphy": 4462,
      "stood": 4463,
      "hit": 4464,
      "refle": 4465,
      "becomes": 4466,
      "ultim": 4467,
      "aptop": 4468,
      "Any": 4469,
      "blind": 4470,
      "krank": 4471,
      "Mitgefühl": 4472,
      "enorm": 4473,
      "San": 4474,
      "fix": 4475,
      "yn": 4476,
      "sty": 4477,
      "schließen": 4478,
      "achie": 4479,
      "virt": 4480,
      "sky": 4481,
      "motiv": 4482,
      "millions": 4483,
      "bewegt": 4484,
      "Aktiv": 4485,
      "Rolle": 4486,
      "hoffe": 4487,
      "ots": 4488,
      "nennt": 4489,
      "ichtet": 4490,
      "tiny": 4491,
      "erfolgre": 4492,
      "150": 4493,
      "75": 4494,
      "Cl": 4495,
      "Nur": 4496,
      "Ris": 4497,
      "Vo": 4498,
      "nine": 4499,
      "isiert": 4500,
      "roll": 4501,
      "pecially": 4502,
      "screen": 4503,
      "record": 4504,
      "Relig": 4505,
      "performance": 4506,
      "Hälfte": 4507,
      "Sam": 4508,
      "_to": 4509,
      "lines": 4510,
      "länger": 4511,
      "pfl": 4512,
      "Är": 4513,
      "ites": 4514,
      "verwand": 4515,
      "solve": 4516,
      "Israel": 4517,
      "zeugt": 4518,
      "explor": 4519,
      "Herausforderung": 4520,
      "Zahlen": 4521,
      "software": 4522,
      "wechsel": 4523,
      "except": 4524,
      "concept": 4525,
      "print": 4526,
      "Erd": 4527,
      "hinaus": 4528,
      "kontroll": 4529,
      "Metho": 4530,
      "Fehler": 4531,
      "economics": 4532,
      "teachers": 4533,
      "Veränderung": 4534,
      "Hir": 4535,
      "dachten": 4536,
      "olog": 4537,
      "code": 4538,
      "igens": 4539,
      "Arm": 4540,
      "Druck": 4541,
      "Kosten": 4542,
      "Elektr": 4543,
      "danger": 4544,
      "hom": 4545,
      "pick": 4546,
      "asing": 4547,
      "decken": 4548,
      "Bewusst": 4549,
      "Schü": 4550,
      "wants": 4551,
      "Vorstellung": 4552,
      "faszin": 4553,
      "Straßen": 4554,
      "fantast": 4555,
      "Dan": 4556,
      "Gut": 4557,
      "zerstör": 4558,
      "mental": 4559,
      "hot": 4560,
      "strateg": 4561,
      "Mole": 4562,
      "Nachrichten": 4563,
      "dynam": 4564,
      "obviously": 4565,
      "Bedeutung": 4566,
      "gorith": 4567,
      "Ru": 4568,
      "egal": 4569,
      "anze": 4570,
      "ieht": 4571,
      "testen": 4572,
      "befinden": 4573,
      "amin": 4574,
      "sahen": 4575,
      "Seiten": 4576,
      "office": 4577,
      "examples": 4578,
      "choice": 4579,
      "Karte": 4580,
      "Sonnen": 4581,
      "Generation": 4582,
      "birth": 4583,
      "35": 4584,
      "Are": 4585,
      "Del": 4586,
      "iple": 4587,
      "tw": 4588,
      "erfor": 4589,
      "gearbeitet": 4590,
      "verste": 4591,
      "mob": 4592,
      "griff": 4593,
      "Stimme": 4594,
      "voller": 4595,
      "developing": 4596,
      "gedacht": 4597,
      "Baby": 4598,
      "Bakter": 4599,
      "Oberfläche": 4600,
      "bung": 4601,
      "ehr": 4602,
      "fro": 4603,
      "smo": 4604,
      "ased": 4605,
      "Leiden": 4606,
      "halte": 4607,
      "wenden": 4608,
      "Iran": 4609,
      "kämp": 4610,
      "Austr": 4611,
      "Face": 4612,
      "TV": 4613,
      "cen": 4614,
      "swe": 4615,
      "uelle": 4616,
      "wesen": 4617,
      "towards": 4618,
      "abo": 4619,
      "genie": 4620,
      "track": 4621,
      "bestimmt": 4622,
      "erzählt": 4623,
      "soziale": 4624,
      "Papier": 4625,
      "Such": 4626,
      "integr": 4627,
      "ierend": 4628,
      "einfache": 4629,
      "geschieht": 4630,
      "starts": 4631,
      "Niger": 4632,
      "isierung": 4633,
      "among": 4634,
      "dop": 4635,
      "schools": 4636,
      "Bücher": 4637,
      "evidence": 4638,
      "chance": 4639,
      "security": 4640,
      "gehe": 4641,
      "imin": 4642,
      "ilities": 4643,
      "brit": 4644,
      "hlte": 4645,
      "direct": 4646,
      "habt": 4647,
      "hielt": 4648,
      "Städte": 4649,
      "Fisch": 4650,
      "Führ": 4651,
      "Tür": 4652,
      "div": 4653,
      "eco": 4654,
      "lif": 4655,
      "ran": 4656,
      "urban": 4657,
      "clean": 4658,
      "groups": 4659,
      "Sonne": 4660,
      "Bewusstsein": 4661,
      "Bu": 4662,
      "Künstler": 4663,
      "Oper": 4664,
      "pack": 4665,
      "sat": 4666,
      "secre": 4667,
      "moder": 4668,
      "ada": 4669,
      "transport": 4670,
      "Firma": 4671,
      "Ozean": 4672,
      "beyond": 4673,
      "hre": 4674,
      "lei": 4675,
      "zuerst": 4676,
      "genes": 4677,
      "progress": 4678,
      "resources": 4679,
      "irgendwo": 4680,
      "character": 4681,
      "temper": 4682,
      "effective": 4683,
      "involved": 4684,
      "potential": 4685,
      "fs": 4686,
      "icle": 4687,
      "term": 4688,
      "uell": 4689,
      "network": 4690,
      "neues": 4691,
      "dream": 4692,
      "magic": 4693,
      "gesamte": 4694,
      "rechts": 4695,
      "Op": 4696,
      "aly": 4697,
      "verurs": 4698,
      "steigen": 4699,
      "mers": 4700,
      "passierte": 4701,
      "gewalt": 4702,
      "neuro": 4703,
      "Beziehung": 4704,
      "effic": 4705,
      "itation": 4706,
      "auty": 4707,
      "trust": 4708,
      "math": 4709,
      "hinzu": 4710,
      "putting": 4711,
      "several": 4712,
      "nuclear": 4713,
      "Spaß": 4714,
      "Ker": 4715,
      "Vol": 4716,
      "ka": 4717,
      "itch": 4718,
      "seite": 4719,
      "perspe": 4720,
      "fold": 4721,
      "interact": 4722,
      "schieden": 4723,
      "Most": 4724,
      "page": 4725,
      "rap": 4726,
      "rain": 4727,
      "ansehen": 4728,
      "especially": 4729,
      "arily": 4730,
      "search": 4731,
      "anda": 4732,
      "abzu": 4733,
      "schaut": 4734,
      "spl": 4735,
      "ously": 4736,
      "üssel": 4737,
      "voice": 4738,
      "Straße": 4739,
      "appear": 4740,
      "ähnlich": 4741,
      "bul": 4742,
      "teile": 4743,
      "bewer": 4744,
      "dress": 4745,
      "clin": 4746,
      "treten": 4747,
      "schlag": 4748,
      "häre": 4749,
      "struct": 4750,
      "Park": 4751,
      "sounds": 4752,
      "journey": 4753,
      "Vereinigten": 4754,
      "Dorf": 4755,
      "frage": 4756,
      "kompliz": 4757,
      "everywhere": 4758,
      "Wieder": 4759,
      "grew": 4760,
      "skin": 4761,
      "profit": 4762,
      "student": 4763,
      "emotional": 4764,
      "itäten": 4765,
      "mäß": 4766,
      "fts": 4767,
      "wide": 4768,
      "Behand": 4769,
      "Erfolg": 4770,
      "Regeln": 4771,
      "Realität": 4772,
      "iziert": 4773,
      "stellten": 4774,
      "ären": 4775,
      "biggest": 4776,
      "plane": 4777,
      "Schulen": 4778,
      "ünden": 4779,
      "ote": 4780,
      "erk": 4781,
      "erwä": 4782,
      "walking": 4783,
      "läuft": 4784,
      "Demokrat": 4785,
      "blich": 4786,
      "pts": 4787,
      "Gruppen": 4788,
      "volle": 4789,
      "weltweit": 4790,
      "nahe": 4791,
      "further": 4792,
      "fli": 4793,
      "sinn": 4794,
      "ended": 4795,
      "nobody": 4796,
      "conv": 4797,
      "princ": 4798,
      "African": 4799,
      "certainly": 4800,
      "Hä": 4801,
      "Zust": 4802,
      "mm": 4803,
      "ometer": 4804,
      "zens": 4805,
      "lief": 4806,
      "showing": 4807,
      "rown": 4808,
      "exciting": 4809,
      "message": 4810,
      "Ergebnis": 4811,
      "Hoffnung": 4812,
      "beauty": 4813,
      "ably": 4814,
      "convers": 4815,
      "poll": 4816,
      "inken": 4817,
      "bots": 4818,
      "virus": 4819,
      "Medizin": 4820,
      "massive": 4821,
      "Chem": 4822,
      "merksamkeit": 4823,
      "lage": 4824,
      "mix": 4825,
      "anth": 4826,
      "änge": 4827,
      "Aufmerksamkeit": 4828,
      "Monaten": 4829,
      "general": 4830,
      "begannen": 4831,
      "Können": 4832,
      "jenigen": 4833,
      "totally": 4834,
      "lag": 4835,
      "thin": 4836,
      "wear": 4837,
      "etc": 4838,
      "experien": 4839,
      "Islam": 4840,
      "After": 4841,
      "Facebook": 4842,
      "caus": 4843,
      "gene": 4844,
      "ify": 4845,
      "complic": 4846,
      "conf": 4847,
      "carry": 4848,
      "Kommun": 4849,
      "largest": 4850,
      "schneller": 4851,
      "Mor": 4852,
      "round": 4853,
      "antly": 4854,
      "ferenz": 4855,
      "Kontrolle": 4856,
      "basic": 4857,
      "University": 4858,
      "block": 4859,
      "Typ": 4860,
      "village": 4861,
      "Hü": 4862,
      "Hoch": 4863,
      "Sand": 4864,
      "Wür": 4865,
      "oul": 4866,
      "iers": 4867,
      "notice": 4868,
      "Beg": 4869,
      "dram": 4870,
      "izations": 4871,
      "Eines": 4872,
      "natür": 4873,
      "wait": 4874,
      "supposed": 4875,
      "teacher": 4876,
      "zeichnet": 4877,
      "particularly": 4878,
      "Even": 4879,
      "Evolution": 4880,
      "Gu": 4881,
      "Sex": 4882,
      "ding": 4883,
      "fon": 4884,
      "glie": 4885,
      "tie": 4886,
      "uals": 4887,
      "deter": 4888,
      "activity": 4889,
      "gewinnen": 4890,
      "offensichtlich": 4891,
      "store": 4892,
      "schreck": 4893,
      "extremely": 4894,
      "Bot": 4895,
      "Tur": 4896,
      "Zentr": 4897,
      "mächt": 4898,
      "Theorie": 4899,
      "Zeug": 4900,
      "standing": 4901,
      "cris": 4902,
      "leader": 4903,
      "statist": 4904,
      "hospital": 4905,
      "Politik": 4906,
      "introdu": 4907,
      "mü": 4908,
      "yr": 4909,
      "separ": 4910,
      "lly": 4911,
      "demonstr": 4912,
      "morgen": 4913,
      "extrem": 4914,
      "ather": 4915,
      "nete": 4916,
      "uchs": 4917,
      "ikal": 4918,
      "Schön": 4919,
      "großer": 4920,
      "Gene": 4921,
      "azy": 4922,
      "legal": 4923,
      "capital": 4924,
      "scientific": 4925,
      "Fähigkeiten": 4926,
      "predict": 4927,
      "Molekü": 4928,
      "Glau": 4929,
      "idem": 4930,
      "itor": 4931,
      "hero": 4932,
      "tells": 4933,
      "richtige": 4934,
      "projects": 4935,
      "Europa": 4936,
      "prison": 4937,
      "herauszufinden": 4938,
      "Wör": 4939,
      "kür": 4940,
      "nüt": 4941,
      "rise": 4942,
      "zunehmen": 4943,
      "aria": 4944,
      "lower": 4945,
      "plants": 4946,
      "Beispiele": 4947,
      "verlieren": 4948,
      "error": 4949,
      "Himmel": 4950,
      "Bank": 4951,
      "Tas": 4952,
      "iar": 4953,
      "secon": 4954,
      "apart": 4955,
      "shot": 4956,
      "füll": 4957,
      "Washing": 4958,
      "native": 4959,
      "Flü": 4960,
      "region": 4961,
      "windigkeit": 4962,
      "Galax": 4963,
      "points": 4964,
      "Ner": 4965,
      "inse": 4966,
      "utr": 4967,
      "span": 4968,
      "confl": 4969,
      "Ange": 4970,
      "schlagen": 4971,
      "psych": 4972,
      "protect": 4973,
      "öffentlichen": 4974,
      "Fortschr": 4975,
      "Kreat": 4976,
      "zten": 4977,
      "sele": 4978,
      "verstanden": 4979,
      "ulpt": 4980,
      "cope": 4981,
      "Tagen": 4982,
      "stick": 4983,
      "gegangen": 4984,
      "pound": 4985,
      "führte": 4986,
      "communication": 4987,
      "einzelne": 4988,
      "produzieren": 4989,
      "Washington": 4990,
      "Ad": 4991,
      "erkann": 4992,
      "ison": 4993,
      "ables": 4994,
      "ickt": 4995,
      "apt": 4996,
      "Gerät": 4997,
      "richtigen": 4998,
      "continu": 4999,
      "arbeitete": 5000,
      "religion": 5001,
      "intelligen": 5002,
      "allowed": 5003,
      "ael": 5004,
      "jung": 5005,
      "lex": 5006,
      "schir": 5007,
      "movie": 5008,
      "Those": 5009,
      "ideos": 5010,
      "earth": 5011,
      "ips": 5012,
      "Ord": 5013,
      "medizin": 5014,
      "Nachbar": 5015,
      "named": 5016,
      "wussten": 5017,
      "galax": 5018,
      "bildung": 5019,
      "früher": 5020,
      "fortunately": 5021,
      "_to_": 5022,
      "Haut": 5023,
      "junge": 5024,
      "lok": 5025,
      "erstoff": 5026,
      "struction": 5027,
      "Gebiet": 5028,
      "Which": 5029,
      "Nahrung": 5030,
      "Ka": 5031,
      "Wol": 5032,
      "cum": 5033,
      "era": 5034,
      "insp": 5035,
      "chst": 5036,
      "immed": 5037,
      "formen": 5038,
      "nenne": 5039,
      "prä": 5040,
      "George": 5041,
      "Einfluss": 5042,
      "großes": 5043,
      "Entwicklungs": 5044,
      "wichtiger": 5045,
      "products": 5046,
      "Studie": 5047,
      "electricity": 5048,
      "Pflanzen": 5049,
      "Baum": 5050,
      "Ress": 5051,
      "Tau": 5052,
      "ric": 5053,
      "anschauen": 5054,
      "ston": 5055,
      "rea": 5056,
      "dog": 5057,
      "drücken": 5058,
      "pair": 5059,
      "Objekt": 5060,
      "wichtige": 5061,
      "erfolgreich": 5062,
      "Zwei": 5063,
      "camera": 5064,
      "beweg": 5065,
      "igr": 5066,
      "rock": 5067,
      "ume": 5068,
      "liber": 5069,
      "agement": 5070,
      "bleibt": 5071,
      "surger": 5072,
      "watching": 5073,
      "Bevölkerung": 5074,
      "sleep": 5075,
      "dun": 5076,
      "labor": 5077,
      "ories": 5078,
      "aussieht": 5079,
      "lide": 5080,
      "Betr": 5081,
      "atell": 5082,
      "glass": 5083,
      "pieces": 5084,
      "spirit": 5085,
      "engineering": 5086,
      "extraordinary": 5087,
      "beobachten": 5088,
      "fundamental": 5089,
      "Mathematik": 5090,
      "Nummer": 5091,
      "Sen": 5092,
      "mist": 5093,
      "zies": 5094,
      "lebr": 5095,
      "andel": 5096,
      "robots": 5097,
      "goal": 5098,
      "ustrie": 5099,
      "kannst": 5100,
      "Ander": 5101,
      "ört": 5102,
      "dreht": 5103,
      "mobile": 5104,
      "Auch": 5105,
      "Dre": 5106,
      "Jed": 5107,
      "Los": 5108,
      "Mr": 5109,
      "Software": 5110,
      "deine": 5111,
      "tschafts": 5112,
      "öst": 5113,
      "represent": 5114,
      "doctor": 5115,
      "prob": 5116,
      "merz": 5117,
      "selts": 5118,
      "hnt": 5119,
      "buildings": 5120,
      "sorts": 5121,
      "join": 5122,
      "daugh": 5123,
      "Morgen": 5124,
      "aim": 5125,
      "einge": 5126,
      "sop": 5127,
      "agree": 5128,
      "mode": 5129,
      "mount": 5130,
      "brand": 5131,
      "feld": 5132,
      "crazy": 5133,
      "stars": 5134,
      "handelt": 5135,
      "Konzept": 5136,
      "Maß": 5137,
      "emplo": 5138,
      "Gewalt": 5139,
      "pensive": 5140,
      "Em": 5141,
      "Las": 5142,
      "Your": 5143,
      "cket": 5144,
      "fel": 5145,
      "mend": 5146,
      "mail": 5147,
      "prakt": 5148,
      "Orte": 5149,
      "Amerikaner": 5150,
      "Wohl": 5151,
      "versuchte": 5152,
      "kurze": 5153,
      "distrib": 5154,
      "Ah": 5155,
      "Finger": 5156,
      "Kil": 5157,
      "Sha": 5158,
      "Stelle": 5159,
      "Tom": 5160,
      "_s_": 5161,
      "abe": 5162,
      "oxy": 5163,
      "runter": 5164,
      "wis": 5165,
      "influ": 5166,
      "verlassen": 5167,
      "vergessen": 5168,
      "wife": 5169,
      "rais": 5170,
      "Feuer": 5171,
      "Menschheit": 5172,
      "private": 5173,
      "Like": 5174,
      "threat": 5175,
      "anks": 5176,
      "anstatt": 5177,
      "entrepr": 5178,
      "ierungen": 5179,
      "opt": 5180,
      "Sohn": 5181,
      "expensive": 5182,
      "plastic": 5183,
      "higher": 5184,
      "lands": 5185,
      "humanity": 5186,
      "kümmer": 5187,
      "continue": 5188,
      "complicated": 5189,
      "entreprene": 5190,
      "2000": 5191,
      "hid": 5192,
      "zig": 5193,
      "weight": 5194,
      "überras": 5195,
      "results": 5196,
      "calcul": 5197,
      "taught": 5198,
      "excited": 5199,
      "fertig": 5200,
      "bestimmten": 5201,
      "ruption": 5202,
      "Sekunden": 5203,
      "Bud": 5204,
      "ius": 5205,
      "luck": 5206,
      "safe": 5207,
      "öp": 5208,
      "auer": 5209,
      "lock": 5210,
      "older": 5211,
      "scr": 5212,
      "hörte": 5213,
      "Mehr": 5214,
      "gleichzeitig": 5215,
      "written": 5216,
      "iversity": 5217,
      "Universität": 5218,
      "zeichnen": 5219,
      "indest": 5220,
      "Flugzeug": 5221,
      "verbessern": 5222,
      "Act": 5223,
      "Lauf": 5224,
      "role": 5225,
      "schuld": 5226,
      "somewhere": 5227,
      "ihres": 5228,
      "akes": 5229,
      "geschehen": 5230,
      "dauer": 5231,
      "Wirklichkeit": 5232,
      "Ano": 5233,
      "Det": 5234,
      "Gel": 5235,
      "Paul": 5236,
      "Sal": 5237,
      "danke": 5238,
      "bridge": 5239,
      "Stamm": 5240,
      "cook": 5241,
      "quar": 5242,
      "Jahrzehn": 5243,
      "flü": 5244,
      "fantastic": 5245,
      "objects": 5246,
      "suddenly": 5247,
      "MIT": 5248,
      "Sign": 5249,
      "bunch": 5250,
      "hungen": 5251,
      "site": 5252,
      "tar": 5253,
      "zimmer": 5254,
      "alive": 5255,
      "impossible": 5256,
      "edia": 5257,
      "usually": 5258,
      "prot": 5259,
      "herr": 5260,
      "prü": 5261,
      "hole": 5262,
      "series": 5263,
      "bessere": 5264,
      "versuche": 5265,
      "Monat": 5266,
      "larger": 5267,
      "Darwin": 5268,
      "favorite": 5269,
      "perspective": 5270,
      "Demokratie": 5271,
      "hi": 5272,
      "kar": 5273,
      "context": 5274,
      "Arab": 5275,
      "ktionen": 5276,
      "trees": 5277,
      "jobs": 5278,
      "äumen": 5279,
      "Büro": 5280,
      "symbol": 5281,
      "bemerken": 5282,
      "violence": 5283,
      "author": 5284,
      "democracy": 5285,
      "neighbor": 5286,
      "bacteria": 5287,
      "65": 5288,
      "Glo": 5289,
      "dor": 5290,
      "raum": 5291,
      "äte": 5292,
      "ano": 5293,
      "abge": 5294,
      "compet": 5295,
      "diesel": 5296,
      "ienst": 5297,
      "plex": 5298,
      "waste": 5299,
      "Auswirk": 5300,
      "folgt": 5301,
      "iologie": 5302,
      "schlechte": 5303,
      "college": 5304,
      "response": 5305,
      "military": 5306,
      "Ach": 5307,
      "Vö": 5308,
      "card": 5309,
      "echt": 5310,
      "nern": 5311,
      "rece": 5312,
      "ichter": 5313,
      "meant": 5314,
      "worfen": 5315,
      "Vergangen": 5316,
      "please": 5317,
      "vented": 5318,
      "prevent": 5319,
      "Gesetz": 5320,
      "experim": 5321,
      "Arbeits": 5322,
      "hundert": 5323,
      "Krankenhaus": 5324,
      "crisis": 5325,
      "Büh": 5326,
      "Tu": 5327,
      "Wik": 5328,
      "fic": 5329,
      "faces": 5330,
      "iately": 5331,
      "langen": 5332,
      "mom": 5333,
      "rand": 5334,
      "tree": 5335,
      "wise": 5336,
      "üll": 5337,
      "stoffe": 5338,
      "weisen": 5339,
      "imal": 5340,
      "core": 5341,
      "earl": 5342,
      "Reaktion": 5343,
      "strange": 5344,
      "takt": 5345,
      "aded": 5346,
      "brains": 5347,
      "Nachricht": 5348,
      "indeed": 5349,
      "Studien": 5350,
      "improve": 5351,
      "famous": 5352,
      "Schüler": 5353,
      "above": 5354,
      "Another": 5355,
      "High": 5356,
      "Sm": 5357,
      "cup": 5358,
      "cross": 5359,
      "fit": 5360,
      "ns": 5361,
      "erzeugen": 5362,
      "remark": 5363,
      "deten": 5364,
      "load": 5365,
      "ourcen": 5366,
      "Invest": 5367,
      "uchen": 5368,
      "Krä": 5369,
      "interessante": 5370,
      "signific": 5371,
      "models": 5372,
      "Innovation": 5373,
      "Uhr": 5374,
      "lauf": 5375,
      "shap": 5376,
      "comfort": 5377,
      "ulate": 5378,
      "proto": 5379,
      "const": 5380,
      "price": 5381,
      "Armut": 5382,
      "mention": 5383,
      "Regel": 5384,
      "strument": 5385,
      "wählen": 5386,
      "production": 5387,
      "Indian": 5388,
      "äusch": 5389,
      "ength": 5390,
      "faster": 5391,
      "graphic": 5392,
      "invention": 5393,
      "trotzdem": 5394,
      "Ed": 5395,
      "Sil": 5396,
      "dlich": 5397,
      "dance": 5398,
      "ügen": 5399,
      "senden": 5400,
      "Franc": 5401,
      "check": 5402,
      "schluss": 5403,
      "creative": 5404,
      "leaders": 5405,
      "sozialen": 5406,
      "killed": 5407,
      "phenomen": 5408,
      "übrigens": 5409,
      "seconds": 5410,
      "600": 5411,
      "Ebene": 5412,
      "Fun": 5413,
      "warten": 5414,
      "worse": 5415,
      "shown": 5416,
      "neuer": 5417,
      "himself": 5418,
      "diagno": 5419,
      "painting": 5420,
      "Charles": 5421,
      "heutzutage": 5422,
      "witter": 5423,
      "erlaubt": 5424,
      "Zugang": 5425,
      "Kan": 5426,
      "Sim": 5427,
      "crow": 5428,
      "unmöglich": 5429,
      "rogen": 5430,
      "reading": 5431,
      "keln": 5432,
      "familiar": 5433,
      "minds": 5434,
      "licherweise": 5435,
      "Wahrscheinlich": 5436,
      "Höhe": 5437,
      "Vergangenheit": 5438,
      "Cam": 5439,
      "Times": 5440,
      "wild": 5441,
      "chair": 5442,
      "atory": 5443,
      "gefragt": 5444,
      "edom": 5445,
      "kommun": 5446,
      "uffer": 5447,
      "Einer": 5448,
      "Einstein": 5449,
      "Artikel": 5450,
      "attle": 5451,
      "Präs": 5452,
      "England": 5453,
      "Spezies": 5454,
      "nachzudenken": 5455,
      "Et": 5456,
      "cat": 5457,
      "cas": 5458,
      "erhö": 5459,
      "esh": 5460,
      "verständ": 5461,
      "ico": 5462,
      "Regen": 5463,
      "ippe": 5464,
      "Neu": 5465,
      "solchen": 5466,
      "altung": 5467,
      "Imag": 5468,
      "conditions": 5469,
      "programm": 5470,
      "training": 5471,
      "großartige": 5472,
      "eventually": 5473,
      "bieten": 5474,
      "Entscheidungen": 5475,
      "stieg": 5476,
      "Bakterien": 5477,
      "Bang": 5478,
      "Ton": 5479,
      "kap": 5480,
      "kreat": 5481,
      "lad": 5482,
      "rasch": 5483,
      "an_": 5484,
      "dert": 5485,
      "offer": 5486,
      "ächst": 5487,
      "Entdeck": 5488,
      "Daher": 5489,
      "particip": 5490,
      "direction": 5491,
      "Linie": 5492,
      "domin": 5493,
      "essentially": 5494,
      "23": 5495,
      "Museum": 5496,
      "Sinne": 5497,
      "base": 5498,
      "isions": 5499,
      "temp": 5500,
      "befindet": 5501,
      "entdeckt": 5502,
      "ikation": 5503,
      "Sche": 5504,
      "ierende": 5505,
      "brea": 5506,
      "Brust": 5507,
      "legenheit": 5508,
      "smaller": 5509,
      "individuals": 5510,
      "neurons": 5511,
      "secret": 5512,
      "Wörter": 5513,
      "Ordnung": 5514,
      "Francis": 5515,
      "Bal": 5516,
      "Bet": 5517,
      "Name": 5518,
      "cial": 5519,
      "jungen": 5520,
      "äre": 5521,
      "in_": 5522,
      "attr": 5523,
      "ids": 5524,
      "sport": 5525,
      "thern": 5526,
      "saving": 5527,
      "upon": 5528,
      "policy": 5529,
      "drehen": 5530,
      "Komplex": 5531,
      "legs": 5532,
      "hängt": 5533,
      "types": 5534,
      "passt": 5535,
      "abhängig": 5536,
      "Kern": 5537,
      "Pos": 5538,
      "Russ": 5539,
      "üben": 5540,
      "entdecken": 5541,
      "berüh": 5542,
      "aufre": 5543,
      "afen": 5544,
      "covery": 5545,
      "Arzt": 5546,
      "willing": 5547,
      "hase": 5548,
      "Grenzen": 5549,
      "rief": 5550,
      "Herr": 5551,
      "Worte": 5552,
      "spielt": 5553,
      "großartig": 5554,
      "Band": 5555,
      "Bro": 5556,
      "Nord": 5557,
      "blog": 5558,
      "Öko": 5559,
      "erfahren": 5560,
      "inden": 5561,
      "income": 5562,
      "atmosp": 5563,
      "reign": 5564,
      "entschieden": 5565,
      "fügen": 5566,
      "fähig": 5567,
      "minister": 5568,
      "Geburt": 5569,
      "Gesundheits": 5570,
      "Hände": 5571,
      "Two": 5572,
      "Wow": 5573,
      "ffekt": 5574,
      "pac": 5575,
      "unächst": 5576,
      "wever": 5577,
      "neun": 5578,
      "astrop": 5579,
      "Transp": 5580,
      "Personen": 5581,
      "window": 5582,
      "treatment": 5583,
      "occur": 5584,
      "successful": 5585,
      "schöne": 5586,
      "psycholog": 5587,
      "automat": 5588,
      "22": 5589,
      "nann": 5590,
      "pal": 5591,
      "atter": 5592,
      "ari": 5593,
      "verm": 5594,
      "pected": 5595,
      "Frank": 5596,
      "beings": 5597,
      "häuf": 5598,
      "launch": 5599,
      "riesige": 5600,
      "traditional": 5601,
      "straight": 5602,
      "philosop": 5603,
      "kämpfen": 5604,
      "range": 5605,
      "zweiten": 5606,
      "loved": 5607,
      "berg": 5608,
      "Think": 5609,
      "herstellen": 5610,
      "Leist": 5611,
      "Gefän": 5612,
      "quant": 5613,
      "normalerweise": 5614,
      "ollege": 5615,
      "Fotos": 5616,
      "increase": 5617,
      "Firmen": 5618,
      "Today": 5619,
      "Geschäfts": 5620,
      "Lö": 5621,
      "Twitter": 5622,
      "fung": 5623,
      "ju": 5624,
      "ring": 5625,
      "inten": 5626,
      "stic": 5627,
      "schicken": 5628,
      "iced": 5629,
      "etze": 5630,
      "worry": 5631,
      "Frieden": 5632,
      "Heim": 5633,
      "standard": 5634,
      "Good": 5635,
      "NASA": 5636,
      "yeah": 5637,
      "oceans": 5638,
      "truly": 5639,
      "emotion": 5640,
      "argument": 5641,
      "ipl": 5642,
      "ende": 5643,
      "report": 5644,
      "lehr": 5645,
      "irur": 5646,
      "ierter": 5647,
      "traum": 5648,
      "mitt": 5649,
      "manche": 5650,
      "School": 5651,
      "counter": 5652,
      "pendent": 5653,
      "Einzel": 5654,
      "Orten": 5655,
      "ünft": 5656,
      "Formen": 5657,
      "visible": 5658,
      "Americans": 5659,
      "öffnen": 5660,
      "Krankheiten": 5661,
      "drugs": 5662,
      "Bon": 5663,
      "Farbe": 5664,
      "Hor": 5665,
      "James": 5666,
      "Kä": 5667,
      "rig": 5668,
      "taten": 5669,
      "ya": 5670,
      "invented": 5671,
      "unded": 5672,
      "omas": 5673,
      "icon": 5674,
      "melt": 5675,
      "celebr": 5676,
      "weren": 5677,
      "endlich": 5678,
      "zumindest": 5679,
      "olly": 5680,
      "effekt": 5681,
      "Feld": 5682,
      "fascin": 5683,
      "retten": 5684,
      "allows": 5685,
      "Architektur": 5686,
      "dangerous": 5687,
      "kit": 5688,
      "leisten": 5689,
      "ingu": 5690,
      "combin": 5691,
      "affect": 5692,
      "somehow": 5693,
      "dritte": 5694,
      "intu": 5695,
      "uding": 5696,
      "sucht": 5697,
      "colleag": 5698,
      "analy": 5699,
      "amerikanischen": 5700,
      "collaboration": 5701,
      "Ler": 5702,
      "gol": 5703,
      "km": 5704,
      "rund": 5705,
      "ray": 5706,
      "uen": 5707,
      "ented": 5708,
      "content": 5709,
      "actual": 5710,
      "song": 5711,
      "respect": 5712,
      "related": 5713,
      "finding": 5714,
      "sprün": 5715,
      "specific": 5716,
      "valu": 5717,
      "Kreis": 5718,
      "costs": 5719,
      "Einkommen": 5720,
      "Nigeria": 5721,
      "Pres": 5722,
      "hoff": 5723,
      "anning": 5724,
      "idet": 5725,
      "machines": 5726,
      "ahmen": 5727,
      "Jahres": 5728,
      "choose": 5729,
      "families": 5730,
      "itude": 5731,
      "service": 5732,
      "Ergebnisse": 5733,
      "Glauben": 5734,
      "surgery": 5735,
      "Junge": 5736,
      "cases": 5737,
      "fill": 5738,
      "sü": 5739,
      "erf": 5740,
      "weite": 5741,
      "veh": 5742,
      "ets": 5743,
      "extr": 5744,
      "Proto": 5745,
      "durchschnitt": 5746,
      "cles": 5747,
      "condition": 5748,
      "healthy": 5749,
      "höher": 5750,
      "älter": 5751,
      "Partner": 5752,
      "recognize": 5753,
      "Imagine": 5754,
      "Gold": 5755,
      "Punkte": 5756,
      "bahn": 5757,
      "kauf": 5758,
      "masch": 5759,
      "enk": 5760,
      "intelle": 5761,
      "station": 5762,
      "ingungen": 5763,
      "nden": 5764,
      "ential": 5765,
      "Wirtschafts": 5766,
      "Grad": 5767,
      "solutions": 5768,
      "communities": 5769,
      "grundlegen": 5770,
      "König": 5771,
      "reduz": 5772,
      "square": 5773,
      "Solar": 5774,
      "Beginn": 5775,
      "Bis": 5776,
      "Bel": 5777,
      "slide": 5778,
      "zy": 5779,
      "intens": 5780,
      "teten": 5781,
      "sowohl": 5782,
      "trifft": 5783,
      "werke": 5784,
      "Ingenie": 5785,
      "bud": 5786,
      "einfachen": 5787,
      "Außer": 5788,
      "betrachtet": 5789,
      "stream": 5790,
      "Designer": 5791,
      "operation": 5792,
      "listening": 5793,
      "verrückt": 5794,
      "industrial": 5795,
      "Schönheit": 5796,
      "Nerven": 5797,
      "earlier": 5798,
      "Ball": 5799,
      "Lu": 5800,
      "Noch": 5801,
      "Pa": 5802,
      "keiner": 5803,
      "dasselbe": 5804,
      "verse": 5805,
      "plat": 5806,
      "driving": 5807,
      "darf": 5808,
      "untersuchen": 5809,
      "Plast": 5810,
      "globalen": 5811,
      "ussion": 5812,
      "spreche": 5813,
      "fühlt": 5814,
      "öffentlich": 5815,
      "Michael": 5816,
      "Profess": 5817,
      "verbinden": 5818,
      "Ressourcen": 5819,
      "Haben": 5820,
      "Mater": 5821,
      "Nä": 5822,
      "Rand": 5823,
      "Än": 5824,
      "üb": 5825,
      "ermö": 5826,
      "leuch": 5827,
      "teen": 5828,
      "bestehen": 5829,
      "hair": 5830,
      "afford": 5831,
      "perfe": 5832,
      "plac": 5833,
      "atest": 5834,
      "erns": 5835,
      "formed": 5836,
      "weitens": 5837,
      "Neur": 5838,
      "bisher": 5839,
      "nerv": 5840,
      "Industrie": 5841,
      "Landes": 5842,
      "organization": 5843,
      "Version": 5844,
      "bestimmte": 5845,
      "gradu": 5846,
      "Gründe": 5847,
      "Behandlung": 5848,
      "Mitt": 5849,
      "falt": 5850,
      "onom": 5851,
      "essed": 5852,
      "zufäll": 5853,
      "forsch": 5854,
      "stecken": 5855,
      "commit": 5856,
      "Geheim": 5857,
      "Erwachsen": 5858,
      "foss": 5859,
      "final": 5860,
      "glicht": 5861,
      "anymore": 5862,
      "Manchmal": 5863,
      "freedom": 5864,
      "walked": 5865,
      "Englisch": 5866,
      "verkaufen": 5867,
      "Western": 5868,
      "Kampf": 5869,
      "getroffen": 5870,
      "Jedes": 5871,
      "Bühne": 5872,
      "Mach": 5873,
      "cure": 5874,
      "hart": 5875,
      "tes": 5876,
      "throw": 5877,
      "arian": 5878,
      "seits": 5879,
      "hell": 5880,
      "platz": 5881,
      "foto": 5882,
      "schafft": 5883,
      "ätze": 5884,
      "ipedia": 5885,
      "ios": 5886,
      "gotten": 5887,
      "teilung": 5888,
      "bedeuten": 5889,
      "psychology": 5890,
      "Bus": 5891,
      "Hum": 5892,
      "Pho": 5893,
      "Pak": 5894,
      "Sa": 5895,
      "pten": 5896,
      "asen": 5897,
      "heben": 5898,
      "conc": 5899,
      "logie": 5900,
      "ending": 5901,
      "sammeln": 5902,
      "Manche": 5903,
      "Konfli": 5904,
      "ishing": 5905,
      "Interesse": 5906,
      "Systeme": 5907,
      "kostet": 5908,
      "transl": 5909,
      "dollar": 5910,
      "tausende": 5911,
      "complexity": 5912,
      "einzelnen": 5913,
      "contrib": 5914,
      "Kollegen": 5915,
      "consciousness": 5916,
      "surprising": 5917,
      "achieve": 5918,
      "ermöglicht": 5919,
      "3D": 5920,
      "kaum": 5921,
      "tle": 5922,
      "wün": 5923,
      "yed": 5924,
      "icians": 5925,
      "iffen": 5926,
      "zeigte": 5927,
      "anti": 5928,
      "maß": 5929,
      "Insel": 5930,
      "Gewe": 5931,
      "Recht": 5932,
      "embr": 5933,
      "glaub": 5934,
      "niedr": 5935,
      "2008": 5936,
      "motor": 5937,
      "hilft": 5938,
      "Zustand": 5939,
      "conversation": 5940,
      "Wunder": 5941,
      "jud": 5942,
      "ky": 5943,
      "slight": 5944,
      "suffer": 5945,
      "ero": 5946,
      "stag": 5947,
      "stück": 5948,
      "rew": 5949,
      "tech": 5950,
      "wirken": 5951,
      "iles": 5952,
      "umzu": 5953,
      "Schn": 5954,
      "ivität": 5955,
      "Star": 5956,
      "gros": 5957,
      "Zeitpunkt": 5958,
      "Trans": 5959,
      "Chance": 5960,
      "gesamten": 5961,
      "symme": 5962,
      "studies": 5963,
      "current": 5964,
      "Methode": 5965,
      "Great": 5966,
      "Hom": 5967,
      "chron": 5968,
      "rect": 5969,
      "leiden": 5970,
      "annt": 5971,
      "grade": 5972,
      "condu": 5973,
      "zieht": 5974,
      "waiting": 5975,
      "relative": 5976,
      "capt": 5977,
      "außerhalb": 5978,
      "flying": 5979,
      "immediately": 5980,
      "Ahnung": 5981,
      "Fü": 5982,
      "fass": 5983,
      "gnis": 5984,
      "kult": 5985,
      "abstr": 5986,
      "mod": 5987,
      "cker": 5988,
      "Inse": 5989,
      "letter": 5990,
      "geschaffen": 5991,
      "folge": 5992,
      "frequ": 5993,
      "metap": 5994,
      "floor": 5995,
      "increasing": 5996,
      "Folgen": 5997,
      "lernte": 5998,
      "thetic": 5999,
      "Pakistan": 6000,
      "Aspe": 6001,
      "_and": 6002,
      "uern": 6003,
      "vard": 6004,
      "website": 6005,
      "Stunde": 6006,
      "auchen": 6007,
      "Verantwort": 6008,
      "understood": 6009,
      "ipt": 6010,
      "Geschäft": 6011,
      "197": 6012,
      "nehme": 6013,
      "estim": 6014,
      "greatest": 6015,
      "einzig": 6016,
      "digit": 6017,
      "brother": 6018,
      "clearly": 6019,
      "fuel": 6020,
      "Lösungen": 6021,
      "genetic": 6022,
      "agricult": 6023,
      "erwarten": 6024,
      "Entscheidung": 6025,
      "Freiheit": 6026,
      "Statist": 6027,
      "Wachstum": 6028,
      "Mart": 6029,
      "Tor": 6030,
      "cast": 6031,
      "catch": 6032,
      "ham": 6033,
      "ufen": 6034,
      "deliver": 6035,
      "icke": 6036,
      "aufgrund": 6037,
      "frame": 6038,
      "frieden": 6039,
      "spür": 6040,
      "Intell": 6041,
      "aps": 6042,
      "drink": 6043,
      "resist": 6044,
      "phones": 6045,
      "connection": 6046,
      "ebenfalls": 6047,
      "journal": 6048,
      "relev": 6049,
      "schätzen": 6050,
      "schirm": 6051,
      "Jungen": 6052,
      "Kamera": 6053,
      "Qual": 6054,
      "Tisch": 6055,
      "hall": 6056,
      "pig": 6057,
      "tan": 6058,
      "anter": 6059,
      "states": 6060,
      "orien": 6061,
      "becoming": 6062,
      "weap": 6063,
      "grü": 6064,
      "Schwar": 6065,
      "Unser": 6066,
      "aware": 6067,
      "erzählte": 6068,
      "vollen": 6069,
      "mitteln": 6070,
      "Biologie": 6071,
      "Fakt": 6072,
      "Pop": 6073,
      "Rob": 6074,
      "Wesen": 6075,
      "fat": 6076,
      "iat": 6077,
      "sal": 6078,
      "itung": 6079,
      "entlichen": 6080,
      "forget": 6081,
      "plom": 6082,
      "Prot": 6083,
      "useful": 6084,
      "anywhere": 6085,
      "stands": 6086,
      "stellungen": 6087,
      "unglaubliche": 6088,
      "analys": 6089,
      "Quad": 6090,
      "erinnere": 6091,
      "including": 6092,
      "afrikan": 6093,
      "intelligence": 6094,
      "erfunden": 6095,
      "öl": 6096,
      "stä": 6097,
      "abl": 6098,
      "annien": 6099,
      "herunter": 6100,
      "herzustellen": 6101,
      "schiede": 6102,
      "Auge": 6103,
      "arbeiter": 6104,
      "welcher": 6105,
      "gewöhnlich": 6106,
      "Maschinen": 6107,
      "patterns": 6108,
      "central": 6109,
      "Leidenschaft": 6110,
      "Lernen": 6111,
      "Californ": 6112,
      "Jan": 6113,
      "Vier": 6114,
      "Zivil": 6115,
      "citi": 6116,
      "iated": 6117,
      "push": 6118,
      "forces": 6119,
      "mitten": 6120,
      "überleben": 6121,
      "selten": 6122,
      "financ": 6123,
      "blau": 6124,
      "flight": 6125,
      "Septe": 6126,
      "gebil": 6127,
      "police": 6128,
      "schlä": 6129,
      "environmental": 6130,
      "electron": 6131,
      "sequence": 6132,
      "negative": 6133,
      "style": 6134,
      "daughter": 6135,
      "random": 6136,
      "September": 6137,
      "Ame": 6138,
      "Aud": 6139,
      "Middle": 6140,
      "ilet": 6141,
      "ersch": 6142,
      "ancy": 6143,
      "deta": 6144,
      "istry": 6145,
      "heat": 6146,
      "therap": 6147,
      "artist": 6148,
      "Bezug": 6149,
      "attack": 6150,
      "throughout": 6151,
      "landsc": 6152,
      "Priv": 6153,
      "herausfinden": 6154,
      "Wohn": 6155,
      "practice": 6156,
      "provide": 6157,
      "Air": 6158,
      "Berg": 6159,
      "eating": 6160,
      "mas": 6161,
      "sad": 6162,
      "enjoy": 6163,
      "schte": 6164,
      "acity": 6165,
      "trouble": 6166,
      "steckt": 6167,
      "spiele": 6168,
      "therefore": 6169,
      "Anwend": 6170,
      "gross": 6171,
      "babies": 6172,
      "aurant": 6173,
      "ieties": 6174,
      "fuhr": 6175,
      "Netzwerk": 6176,
      "Abend": 6177,
      "critical": 6178,
      "remarkable": 6179,
      "26": 6180,
      "Last": 6181,
      "RI": 6182,
      "Wes": 6183,
      "bü": 6184,
      "lter": 6185,
      "mid": 6186,
      "sme": 6187,
      "öse": 6188,
      "reibt": 6189,
      "zusagen": 6190,
      "address": 6191,
      "antic": 6192,
      "Erstens": 6193,
      "partner": 6194,
      "funny": 6195,
      "greifen": 6196,
      "skills": 6197,
      "öffnet": 6198,
      "terror": 6199,
      "Virus": 6200,
      "Organisation": 6201,
      "sätzlich": 6202,
      "survive": 6203,
      "Detail": 6204,
      "Wikipedia": 6205,
      "Fen": 6206,
      "Mill": 6207,
      "iqu": 6208,
      "yl": 6209,
      "unsch": 6210,
      "tome": 6211,
      "desto": 6212,
      "tery": 6213,
      "myster": 6214,
      "Angel": 6215,
      "flies": 6216,
      "greater": 6217,
      "Teilen": 6218,
      "storytelling": 6219,
      "änden": 6220,
      "einzigen": 6221,
      "Region": 6222,
      "wunderbar": 6223,
      "birds": 6224,
      "CA": 6225,
      "cel": 6226,
      "gin": 6227,
      "nungen": 6228,
      "seas": 6229,
      "geo": 6230,
      "mobil": 6231,
      "manip": 6232,
      "maßen": 6233,
      "vorbei": 6234,
      "kenne": 6235,
      "bodies": 6236,
      "mehrere": 6237,
      "redit": 6238,
      "rights": 6239,
      "humor": 6240,
      "brauchte": 6241,
      "designer": 6242,
      "teaching": 6243,
      "Worten": 6244,
      "besondere": 6245,
      "expand": 6246,
      "unterschiedliche": 6247,
      "original": 6248,
      "27": 6249,
      "DH": 6250,
      "Kal": 6251,
      "Kir": 6252,
      "Mir": 6253,
      "aper": 6254,
      "hop": 6255,
      "lust": 6256,
      "rational": 6257,
      "sn": 6258,
      "ench": 6259,
      "intr": 6260,
      "ittel": 6261,
      "react": 6262,
      "diejenigen": 6263,
      "bezahl": 6264,
      "erei": 6265,
      "demand": 6266,
      "astron": 6267,
      "Verständ": 6268,
      "paid": 6269,
      "spez": 6270,
      "hydro": 6271,
      "Traum": 6272,
      "decisions": 6273,
      "wärts": 6274,
      "copy": 6275,
      "dadurch": 6276,
      "conflict": 6277,
      "Ehe": 6278,
      "His": 6279,
      "Ira": 6280,
      "MS": 6281,
      "dings": 6282,
      "double": 6283,
      "gi": 6284,
      "gift": 6285,
      "kung": 6286,
      "sus": 6287,
      "sweise": 6288,
      "veränder": 6289,
      "afft": 6290,
      "express": 6291,
      "angefangen": 6292,
      "handeln": 6293,
      "played": 6294,
      "lights": 6295,
      "Steve": 6296,
      "Gehirns": 6297,
      "ebenso": 6298,
      "erstaunlich": 6299,
      "dimensional": 6300,
      "britannien": 6301,
      "Auswirkungen": 6302,
      "Center": 6303,
      "Ereign": 6304,
      "Wur": 6305,
      "gig": 6306,
      "hon": 6307,
      "rough": 6308,
      "itat": 6309,
      "accept": 6310,
      "trick": 6311,
      "Thomas": 6312,
      "seines": 6313,
      "vention": 6314,
      "shared": 6315,
      "rooms": 6316,
      "Typen": 6317,
      "behandeln": 6318,
      "Telefon": 6319,
      "Religion": 6320,
      "Plastik": 6321,
      "California": 6322,
      "Again": 6323,
      "End": 6324,
      "Green": 6325,
      "PS": 6326,
      "Toch": 6327,
      "ahead": 6328,
      "bought": 6329,
      "blow": 6330,
      "dinosaur": 6331,
      "mouth": 6332,
      "vit": 6333,
      "üst": 6334,
      "chines": 6335,
      "teuer": 6336,
      "deb": 6337,
      "kelet": 6338,
      "cold": 6339,
      "Projekte": 6340,
      "alley": 6341,
      "anyway": 6342,
      "Zeiten": 6343,
      "196": 6344,
      "geschah": 6345,
      "Mond": 6346,
      "ameras": 6347,
      "holt": 6348,
      "laden": 6349,
      "Schrift": 6350,
      "fängt": 6351,
      "twice": 6352,
      "temperature": 6353,
      "Gefängnis": 6354,
      "Big": 6355,
      "Liste": 6356,
      "Zw": 6357,
      "lu": 6358,
      "phin": 6359,
      "algorith": 6360,
      "behau": 6361,
      "aff": 6362,
      "bling": 6363,
      "suit": 6364,
      "decision": 6365,
      "Marke": 6366,
      "fühlte": 6367,
      "possibly": 6368,
      "instance": 6369,
      "Filme": 6370,
      "flex": 6371,
      "Bedür": 6372,
      "erklärt": 6373,
      "meeting": 6374,
      "following": 6375,
      "Physik": 6376,
      "evolved": 6377,
      "Tochter": 6378,
      "Gar": 6379,
      "Mär": 6380,
      "bing": 6381,
      "ibr": 6382,
      "saf": 6383,
      "ächen": 6384,
      "altet": 6385,
      "leider": 6386,
      "degre": 6387,
      "sphere": 6388,
      "spot": 6389,
      "Erkennt": 6390,
      "Konferenz": 6391,
      "decade": 6392,
      "2007": 6393,
      "rule": 6394,
      "schönen": 6395,
      "schützen": 6396,
      "Global": 6397,
      "Lar": 6398,
      "remain": 6399,
      "istr": 6400,
      "iling": 6401,
      "Arme": 6402,
      "park": 6403,
      "produced": 6404,
      "amente": 6405,
      "radio": 6406,
      "lebte": 6407,
      "Materialien": 6408,
      "Text": 6409,
      "ehrlich": 6410,
      "Bre": 6411,
      "Bra": 6412,
      "Many": 6413,
      "hous": 6414,
      "iop": 6415,
      "thal": 6416,
      "assoc": 6417,
      "commer": 6418,
      "aining": 6419,
      "From": 6420,
      "spezie": 6421,
      "begonnen": 6422,
      "profound": 6423,
      "Großbritannien": 6424,
      "existiert": 6425,
      "Jahrhunderts": 6426,
      "Damit": 6427,
      "unique": 6428,
      "degrees": 6429,
      "Bur": 6430,
      "Gang": 6431,
      "Lang": 6432,
      "Phän": 6433,
      "iPh": 6434,
      "infrastru": 6435,
      "below": 6436,
      "wealth": 6437,
      "umm": 6438,
      "bruch": 6439,
      "expected": 6440,
      "concl": 6441,
      "plus": 6442,
      "Vergleich": 6443,
      "ignor": 6444,
      "mostly": 6445,
      "barkeit": 6446,
      "guter": 6447,
      "Individ": 6448,
      "Finanz": 6449,
      "Eigenschaften": 6450,
      "Knochen": 6451,
      "enormous": 6452,
      "ißen": 6453,
      "none": 6454,
      "vul": 6455,
      "wuchs": 6456,
      "sters": 6457,
      "ativen": 6458,
      "verhalten": 6459,
      "trade": 6460,
      "iffe": 6461,
      "Infrastru": 6462,
      "Thanks": 6463,
      "ured": 6464,
      "gutes": 6465,
      "raise": 6466,
      "wichtigsten": 6467,
      "summer": 6468,
      "Norden": 6469,
      "scientist": 6470,
      "Produkte": 6471,
      "trieben": 6472,
      "frühen": 6473,
      "Street": 6474,
      "heutigen": 6475,
      "television": 6476,
      "purpose": 6477,
      "Klimaw": 6478,
      "memory": 6479,
      "oxygen": 6480,
      "slightly": 6481,
      "smell": 6482,
      "College": 6483,
      "Mic": 6484,
      "hone": 6485,
      "lungen": 6486,
      "stim": 6487,
      "atives": 6488,
      "seh": 6489,
      "verfüg": 6490,
      "forth": 6491,
      "doctors": 6492,
      "peratur": 6493,
      "ikas": 6494,
      "Stan": 6495,
      "geschafft": 6496,
      "Ausdruck": 6497,
      "cycle": 6498,
      "compon": 6499,
      "jemandem": 6500,
      "Spielen": 6501,
      "destro": 6502,
      "intelligent": 6503,
      "Harvard": 6504,
      "Psycho": 6505,
      "dramat": 6506,
      "95": 6507,
      "Alex": 6508,
      "Did": 6509,
      "Jour": 6510,
      "Loch": 6511,
      "Tanz": 6512,
      "bird": 6513,
      "dein": 6514,
      "i_": 6515,
      "kin": 6516,
      "race": 6517,
      "Öff": 6518,
      "erleben": 6519,
      "account": 6520,
      "worten": 6521,
      "brilli": 6522,
      "strug": 6523,
      "Frü": 6524,
      "1990": 6525,
      "phil": 6526,
      "Bru": 6527,
      "element": 6528,
      "Genom": 6529,
      "Glas": 6530,
      "Schluss": 6531,
      "horr": 6532,
      "haltung": 6533,
      "Sauerstoff": 6534,
      "directly": 6535,
      "Zentrum": 6536,
      "experiments": 6537,
      "ollywood": 6538,
      "Life": 6539,
      "Port": 6540,
      "Spiele": 6541,
      "ellen": 6542,
      "ragen": 6543,
      "xim": 6544,
      "recor": 6545,
      "orben": 6546,
      "ara": 6547,
      "beantwor": 6548,
      "amour": 6549,
      "uments": 6550,
      "dritten": 6551,
      "ufact": 6552,
      "speaking": 6553,
      "tremend": 6554,
      "stock": 6555,
      "charge": 6556,
      "tausend": 6557,
      "levels": 6558,
      "staat": 6559,
      "causes": 6560,
      "Laptop": 6561,
      "Mac": 6562,
      "Osten": 6563,
      "Pil": 6564,
      "scan": 6565,
      "task": 6566,
      "rechte": 6567,
      "weiss": 6568,
      "verhin": 6569,
      "sobald": 6570,
      "ulieren": 6571,
      "conference": 6572,
      "apply": 6573,
      "Schle": 6574,
      "Schutz": 6575,
      "Verfüg": 6576,
      "pleas": 6577,
      "interview": 6578,
      "Geschwindigkeit": 6579,
      "Kontin": 6580,
      "Interess": 6581,
      "pressure": 6582,
      "ancient": 6583,
      "supply": 6584,
      "imeter": 6585,
      "popular": 6586,
      "Atlant": 6587,
      "Süd": 6588,
      "industrie": 6589,
      "Beziehungen": 6590,
      "unterstützen": 6591,
      "Komplexität": 6592,
      "Neuronen": 6593,
      "Infrastruktur": 6594,
      "Cor": 6595,
      "Kann": 6596,
      "üp": 6597,
      "ery": 6598,
      "itts": 6599,
      "defen": 6600,
      "verantwort": 6601,
      "entschied": 6602,
      "entweder": 6603,
      "trage": 6604,
      "compl": 6605,
      "acts": 6606,
      "izes": 6607,
      "bread": 6608,
      "basis": 6609,
      "More": 6610,
      "Spitze": 6611,
      "closer": 6612,
      "fash": 6613,
      "Meeres": 6614,
      "markets": 6615,
      "insects": 6616,
      "dorthin": 6617,
      "atmosphere": 6618,
      "Journal": 6619,
      "King": 6620,
      "Terror": 6621,
      "Wett": 6622,
      "bone": 6623,
      "cust": 6624,
      "sichtig": 6625,
      "tit": 6626,
      "vic": 6627,
      "inf": 6628,
      "thod": 6629,
      "aling": 6630,
      "reifen": 6631,
      "isol": 6632,
      "rob": 6633,
      "entstehen": 6634,
      "notwend": 6635,
      "Einfach": 6636,
      "paign": 6637,
      "gelöst": 6638,
      "einfacher": 6639,
      "Nehmen": 6640,
      "1960": 6641,
      "markt": 6642,
      "helped": 6643,
      "laugh": 6644,
      "Gespr": 6645,
      "azine": 6646,
      "Freude": 6647,
      "Herzen": 6648,
      "cultural": 6649,
      "career": 6650,
      "Paris": 6651,
      "values": 6652,
      "offee": 6653,
      "terrible": 6654,
      "vari": 6655,
      "focused": 6656,
      "erwartet": 6657,
      "exploration": 6658,
      "statistics": 6659,
      "_and_": 6660,
      "Intelligen": 6661,
      "Bedürf": 6662,
      "Fün": 6663,
      "Tieren": 6664,
      "ba": 6665,
      "körper": 6666,
      "sick": 6667,
      "encour": 6668,
      "rechten": 6669,
      "ores": 6670,
      "gek": 6671,
      "verbringen": 6672,
      "acqu": 6673,
      "Rech": 6674,
      "oting": 6675,
      "wenige": 6676,
      "piegel": 6677,
      "Klasse": 6678,
      "Regierungen": 6679,
      "capacity": 6680,
      "install": 6681,
      "collect": 6682,
      "Coun": 6683,
      "produziert": 6684,
      "Sommer": 6685,
      "Ärzte": 6686,
      "Hirn": 6687,
      "inspired": 6688,
      "Verständnis": 6689,
      "Ident": 6690,
      "Mob": 6691,
      "dür": 6692,
      "rän": 6693,
      "va": 6694,
      "held": 6695,
      "icles": 6696,
      "genome": 6697,
      "Sold": 6698,
      "Wege": 6699,
      "boys": 6700,
      "tax": 6701,
      "finanz": 6702,
      "izz": 6703,
      "geschlossen": 6704,
      "creates": 6705,
      "although": 6706,
      "Boston": 6707,
      "Atmosp": 6708,
      "laws": 6709,
      "chemical": 6710,
      "traffic": 6711,
      "explore": 6712,
      "Position": 6713,
      "47": 6714,
      "Offen": 6715,
      "hib": 6716,
      "kan": 6717,
      "pä": 6718,
      "isser": 6719,
      "entdeck": 6720,
      "ays": 6721,
      "warm": 6722,
      "präsent": 6723,
      "qual": 6724,
      "ierenden": 6725,
      "aham": 6726,
      "füllen": 6727,
      "blü": 6728,
      "workers": 6729,
      "networks": 6730,
      "setzung": 6731,
      "breast": 6732,
      "krit": 6733,
      "societies": 6734,
      "pressed": 6735,
      "größere": 6736,
      "Perspekt": 6737,
      "Überleben": 6738,
      "Antworten": 6739,
      "various": 6740,
      "Institution": 6741,
      "efficient": 6742,
      "Francisco": 6743,
      "Fenster": 6744,
      "Iraq": 6745,
      "DA": 6746,
      "Ep": 6747,
      "Get": 6748,
      "Holz": 6749,
      "Keine": 6750,
      "La": 6751,
      "PA": 6752,
      "dage": 6753,
      "echte": 6754,
      "vacc": 6755,
      "infe": 6756,
      "stimm": 6757,
      "aries": 6758,
      "ursprün": 6759,
      "genutzt": 6760,
      "aufgenommen": 6761,
      "wiesen": 6762,
      "Westen": 6763,
      "artig": 6764,
      "Sehr": 6765,
      "cry": 6766,
      "Neuro": 6767,
      "decide": 6768,
      "globale": 6769,
      "imagin": 6770,
      "magnet": 6771,
      "hängen": 6772,
      "ception": 6773,
      "Schlüssel": 6774,
      "Veränderungen": 6775,
      "Sekunde": 6776,
      "konzentrieren": 6777,
      "Golf": 6778,
      "Austral": 6779,
      "Materie": 6780,
      "fashion": 6781,
      "Bitte": 6782,
      "Wü": 6783,
      "Wider": 6784,
      "Zuf": 6785,
      "adem": 6786,
      "coffee": 6787,
      "nutz": 6788,
      "uk": 6789,
      "zon": 6790,
      "erzeugt": 6791,
      "usual": 6792,
      "lying": 6793,
      "spar": 6794,
      "wers": 6795,
      "bran": 6796,
      "ätsel": 6797,
      "party": 6798,
      "akzept": 6799,
      "Orig": 6800,
      "2010": 6801,
      "designers": 6802,
      "Unterschiede": 6803,
      "schlimm": 6804,
      "Comput": 6805,
      "Robert": 6806,
      "eigenes": 6807,
      "bedingt": 6808,
      "hearing": 6809,
      "Medikamente": 6810,
      "gentle": 6811,
      "neighborhood": 6812,
      "kulture": 6813,
      "Bay": 6814,
      "Laden": 6815,
      "Müll": 6816,
      "Null": 6817,
      "Wunsch": 6818,
      "jün": 6819,
      "aught": 6820,
      "gehalten": 6821,
      "note": 6822,
      "pelt": 6823,
      "mente": 6824,
      "crime": 6825,
      "balance": 6826,
      "turning": 6827,
      "Werte": 6828,
      "mutter": 6829,
      "alternative": 6830,
      "Result": 6831,
      "Kapital": 6832,
      "molecules": 6833,
      "Niemand": 6834,
      "Temperatur": 6835,
      "beeinflusst": 6836,
      "fotograf": 6837,
      "Phänomen": 6838,
      "Brot": 6839,
      "Bäume": 6840,
      "Dort": 6841,
      "Sun": 6842,
      "Tel": 6843,
      "Take": 6844,
      "Waffen": 6845,
      "bag": 6846,
      "ech": 6847,
      "kno": 6848,
      "ona": 6849,
      "schutz": 6850,
      "ilien": 6851,
      "ops": 6852,
      "frustr": 6853,
      "wieso": 6854,
      "cott": 6855,
      "Very": 6856,
      "nachhalt": 6857,
      "konom": 6858,
      "gewonnen": 6859,
      "bitten": 6860,
      "visit": 6861,
      "Teilchen": 6862,
      "Fluss": 6863,
      "ütter": 6864,
      "Mark": 6865,
      "switch": 6866,
      "spending": 6867,
      "Erfahrungen": 6868,
      "Zusammenhang": 6869,
      "sharing": 6870,
      "Juli": 6871,
      "Werkzeuge": 6872,
      "institutions": 6873,
      "Suche": 6874,
      "Tube": 6875,
      "significant": 6876,
      "tempor": 6877,
      "Professor": 6878,
      "metaphor": 6879,
      "Verantwortung": 6880,
      "astronom": 6881,
      "28": 6882,
      "250": 6883,
      "Hung": 6884,
      "mam": 6885,
      "nöt": 6886,
      "san": 6887,
      "ires": 6888,
      "schwe": 6889,
      "agon": 6890,
      "artige": 6891,
      "gering": 6892,
      "Graf": 6893,
      "Second": 6894,
      "geschichte": 6895,
      "lautet": 6896,
      "gestorben": 6897,
      "losing": 6898,
      "äuß": 6899,
      "match": 6900,
      "anced": 6901,
      "Jede": 6902,
      "yellow": 6903,
      "effects": 6904,
      "trieb": 6905,
      "relationships": 6906,
      "Farben": 6907,
      "verursacht": 6908,
      "pounds": 6909,
      "Kilometer": 6910,
      "Actually": 6911,
      "infrastructure": 6912,
      "custom": 6913,
      "Hig": 6914,
      "Massen": 6915,
      "bow": 6916,
      "baut": 6917,
      "gree": 6918,
      "hause": 6919,
      "wing": 6920,
      "erve": 6921,
      "stadt": 6922,
      "remo": 6923,
      "irgen": 6924,
      "dee": 6925,
      "entlang": 6926,
      "vey": 6927,
      "sodass": 6928,
      "sozusagen": 6929,
      "trial": 6930,
      "master": 6931,
      "Instead": 6932,
      "Erinner": 6933,
      "seemed": 6934,
      "host": 6935,
      "glaubt": 6936,
      "Konsum": 6937,
      "Chic": 6938,
      "feels": 6939,
      "names": 6940,
      "corner": 6941,
      "Asia": 6942,
      "puzz": 6943,
      "photography": 6944,
      "broken": 6945,
      "diseases": 6946,
      "advant": 6947,
      "Adam": 6948,
      "_how": 6949,
      "aven": 6950,
      "hus": 6951,
      "iot": 6952,
      "jene": 6953,
      "män": 6954,
      "derung": 6955,
      "wid": 6956,
      "früh": 6957,
      "manufact": 6958,
      "expon": 6959,
      "grav": 6960,
      "applic": 6961,
      "Gefühle": 6962,
      "YouTube": 6963,
      "keiten": 6964,
      "wählt": 6965,
      "prep": 6966,
      "ucker": 6967,
      "gesell": 6968,
      "Polize": 6969,
      "devices": 6970,
      "communicate": 6971,
      "erlauben": 6972,
      "sustainable": 6973,
      "institution": 6974,
      "Ama": 6975,
      "Blog": 6976,
      "Eth": 6977,
      "eure": 6978,
      "kut": 6979,
      "lies": 6980,
      "rt": 6981,
      "stam": 6982,
      "stimmen": 6983,
      "asp": 6984,
      "repres": 6985,
      "istisch": 6986,
      "wirst": 6987,
      "acked": 6988,
      "perform": 6989,
      "prise": 6990,
      "voraus": 6991,
      "Ansatz": 6992,
      "whose": 6993,
      "hyth": 6994,
      "craft": 6995,
      "führung": 6996,
      "bereich": 6997,
      "größeren": 6998,
      "bedeut": 6999,
      "vollkommen": 7000,
      "Karr": 7001,
      "fasst": 7002,
      "easily": 7003,
      "Sterne": 7004,
      "Nähe": 7005,
      "Fünf": 7006,
      "Atom": 7007,
      "Dinosaur": 7008,
      "Rau": 7009,
      "Sind": 7010,
      "dol": 7011,
      "dying": 7012,
      "ipe": 7013,
      "mort": 7014,
      "iete": 7015,
      "scher": 7016,
      "heav": 7017,
      "edy": 7018,
      "edge": 7019,
      "Gelegenheit": 7020,
      "boat": 7021,
      "Heil": 7022,
      "bub": 7023,
      "üsse": 7024,
      "parent": 7025,
      "Syn": 7026,
      "Falls": 7027,
      "krebs": 7028,
      "profession": 7029,
      "Kreativität": 7030,
      "Bom": 7031,
      "Cha": 7032,
      "Kunden": 7033,
      "Masse": 7034,
      "Pan": 7035,
      "Would": 7036,
      "date": 7037,
      "ält": 7038,
      "atte": 7039,
      "itär": 7040,
      "orient": 7041,
      "verme": 7042,
      "heir": 7043,
      "perfekt": 7044,
      "artists": 7045,
      "Erklär": 7046,
      "versus": 7047,
      "interpret": 7048,
      "erstes": 7049,
      "ganzes": 7050,
      "highly": 7051,
      "particles": 7052,
      "published": 7053,
      "stopped": 7054,
      "biological": 7055,
      "finger": 7056,
      "Gemeinde": 7057,
      "effiz": 7058,
      "Basis": 7059,
      "benötigt": 7060,
      "Fernsehen": 7061,
      "begeist": 7062,
      "Botschaft": 7063,
      "Dere": 7064,
      "Zur": 7065,
      "gilt": 7066,
      "künst": 7067,
      "länd": 7068,
      "uum": 7069,
      "uted": 7070,
      "auber": 7071,
      "novel": 7072,
      "ktro": 7073,
      "brachten": 7074,
      "noticed": 7075,
      "Erst": 7076,
      "assum": 7077,
      "penden": 7078,
      "langt": 7079,
      "surge": 7080,
      "sites": 7081,
      "rufen": 7082,
      "sorry": 7083,
      "verkauft": 7084,
      "definition": 7085,
      "Charakter": 7086,
      "lebten": 7087,
      "ivalent": 7088,
      "necessarily": 7089,
      "entrepreneur": 7090,
      "lucky": 7091,
      "Insekten": 7092,
      "Chicago": 7093,
      "29": 7094,
      "Ak": 7095,
      "Hund": 7096,
      "Por": 7097,
      "Pot": 7098,
      "Rom": 7099,
      "Wichtig": 7100,
      "camp": 7101,
      "eg": 7102,
      "etry": 7103,
      "tons": 7104,
      "stände": 7105,
      "kehren": 7106,
      "achsen": 7107,
      "spo": 7108,
      "ennung": 7109,
      "grass": 7110,
      "saß": 7111,
      "selber": 7112,
      "klass": 7113,
      "hohe": 7114,
      "Einsatz": 7115,
      "fälle": 7116,
      "Todes": 7117,
      "programs": 7118,
      "wheel": 7119,
      "Experim": 7120,
      "architect": 7121,
      "organisms": 7122,
      "passed": 7123,
      "Werkzeug": 7124,
      "Titel": 7125,
      "British": 7126,
      "Mission": 7127,
      "Vogel": 7128,
      "Kommunikation": 7129,
      "natürliche": 7130,
      "füllt": 7131,
      "häufig": 7132,
      "financial": 7133,
      "Bienen": 7134,
      "Dienst": 7135,
      "GPS": 7136,
      "Klassen": 7137,
      "Nutzen": 7138,
      "Ox": 7139,
      "Satur": 7140,
      "_for": 7141,
      "eh": 7142,
      "ties": 7143,
      "beat": 7144,
      "compe": 7145,
      "Inner": 7146,
      "klin": 7147,
      "Vertrauen": 7148,
      "stron": 7149,
      "eingesch": 7150,
      "Tradition": 7151,
      "weiterhin": 7152,
      "Unternehmer": 7153,
      "sitzt": 7154,
      "Freunden": 7155,
      "gefallen": 7156,
      "winz": 7157,
      "clever": 7158,
      "planets": 7159,
      "services": 7160,
      "definit": 7161,
      "fairly": 7162,
      "gypt": 7163,
      "amerikanische": 7164,
      "Motor": 7165,
      "Metap": 7166,
      "iPhone": 7167,
      "Verfügung": 7168,
      "48": 7169,
      "BF": 7170,
      "CD": 7171,
      "Cy": 7172,
      "Effekt": 7173,
      "Mos": 7174,
      "Over": 7175,
      "Zelle": 7176,
      "ock": 7177,
      "pp": 7178,
      "rare": 7179,
      "tissue": 7180,
      "inj": 7181,
      "ref": 7182,
      "rede": 7183,
      "ette": 7184,
      "appl": 7185,
      "Gewicht": 7186,
      "quote": 7187,
      "finished": 7188,
      "izität": 7189,
      "claim": 7190,
      "offic": 7191,
      "gewisse": 7192,
      "Boot": 7193,
      "sicherlich": 7194,
      "Muslim": 7195,
      "answers": 7196,
      "verbreitet": 7197,
      "campaign": 7198,
      "Hintergrund": 7199,
      "modernen": 7200,
      "colleagues": 7201,
      "tremendous": 7202,
      "32": 7203,
      "BM": 7204,
      "Dem": 7205,
      "Fabr": 7206,
      "Mad": 7207,
      "Mess": 7208,
      "Rücken": 7209,
      "Sorgen": 7210,
      "chern": 7211,
      "ontal": 7212,
      "reten": 7213,
      "return": 7214,
      "leun": 7215,
      "seien": 7216,
      "bezahlen": 7217,
      "noise": 7218,
      "steigt": 7219,
      "ads": 7220,
      "worst": 7221,
      "daß": 7222,
      "logical": 7223,
      "French": 7224,
      "wält": 7225,
      "mögliche": 7226,
      "bringing": 7227,
      "Meilen": 7228,
      "effort": 7229,
      "Verbindungen": 7230,
      "zählen": 7231,
      "Jobs": 7232,
      "träge": 7233,
      "benötigen": 7234,
      "letztes": 7235,
      "erforschen": 7236,
      "irurg": 7237,
      "Karriere": 7238,
      "33": 7239,
      "55": 7240,
      "800": 7241,
      "Dun": 7242,
      "Fein": 7243,
      "Ter": 7244,
      "Vision": 7245,
      "cow": 7246,
      "iell": 7247,
      "andem": 7248,
      "bear": 7249,
      "berühr": 7250,
      "method": 7251,
      "Sozial": 7252,
      "kton": 7253,
      "extin": 7254,
      "Gest": 7255,
      "bound": 7256,
      "newsp": 7257,
      "background": 7258,
      "differences": 7259,
      "gewachsen": 7260,
      "differently": 7261,
      "Unterstüt": 7262,
      "Mitglie": 7263,
      "decades": 7264,
      "norm": 7265,
      "Universums": 7266,
      "covered": 7267,
      "Schlag": 7268,
      "studying": 7269,
      "missing": 7270,
      "fragten": 7271,
      "krieg": 7272,
      "Nahrungs": 7273,
      "verdienen": 7274,
      "Radio": 7275,
      "bemerkens": 7276,
      "relevant": 7277,
      "giant": 7278,
      "dagegen": 7279,
      "CE": 7280,
      "Fest": 7281,
      "Ganz": 7282,
      "bits": 7283,
      "cked": 7284,
      "künft": 7285,
      "wander": 7286,
      "äm": 7287,
      "andid": 7288,
      "Beste": 7289,
      "ernst": 7290,
      "wächst": 7291,
      "istenz": 7292,
      "Karten": 7293,
      "posite": 7294,
      "zog": 7295,
      "challenges": 7296,
      "cognitive": 7297,
      "repräsent": 7298,
      "Science": 7299,
      "Funktion": 7300,
      "Intelligenz": 7301,
      "Eind": 7302,
      "Fach": 7303,
      "Hal": 7304,
      "Link": 7305,
      "cli": 7306,
      "mouse": 7307,
      "äten": 7308,
      "äne": 7309,
      "ierungs": 7310,
      "memor": 7311,
      "adapt": 7312,
      "prior": 7313,
      "hlung": 7314,
      "shift": 7315,
      "pengu": 7316,
      "sculpt": 7317,
      "weiteres": 7318,
      "epidem": 7319,
      "Strateg": 7320,
      "beschreiben": 7321,
      "nächstes": 7322,
      "Jeff": 7323,
      "ighten": 7324,
      "Obama": 7325,
      "zweif": 7326,
      "governments": 7327,
      "Milliarde": 7328,
      "Beruf": 7329,
      "deutlich": 7330,
      "Apple": 7331,
      "afraid": 7332,
      "Philo": 7333,
      "orgung": 7334,
      "kontrollieren": 7335,
      "vulner": 7336,
      "Atmosphäre": 7337,
      "120": 7338,
      "Drei": 7339,
      "Jer": 7340,
      "Rätsel": 7341,
      "Szen": 7342,
      "Show": 7343,
      "Säu": 7344,
      "Tim": 7345,
      "cro": 7346,
      "nit": 7347,
      "oret": 7348,
      "uz": 7349,
      "lling": 7350,
      "meister": 7351,
      "ulous": 7352,
      "angle": 7353,
      "knowing": 7354,
      "klingt": 7355,
      "Rede": 7356,
      "strahl": 7357,
      "systeme": 7358,
      "steller": 7359,
      "besitzen": 7360,
      "ording": 7361,
      "imagination": 7362,
      "politische": 7363,
      "mutlich": 7364,
      "ropy": 7365,
      "Online": 7366,
      "Haiti": 7367,
      "Staat": 7368,
      "figured": 7369,
      "riesigen": 7370,
      "gewöhnliche": 7371,
      "Strukturen": 7372,
      "benefits": 7373,
      "Medikament": 7374,
      "leadership": 7375,
      "Entwicklungsl": 7376,
      "landscape": 7377,
      "honest": 7378,
      "brilliant": 7379,
      "85": 7380,
      "Beine": 7381,
      "SE": 7382,
      "Sport": 7383,
      "Tun": 7384,
      "danc": 7385,
      "läch": 7386,
      "enze": 7387,
      "unts": 7388,
      "reagieren": 7389,
      "theater": 7390,
      "roof": 7391,
      "neten": 7392,
      "losen": 7393,
      "iften": 7394,
      "moon": 7395,
      "spaces": 7396,
      "conce": 7397,
      "cheap": 7398,
      "iabet": 7399,
      "gelassen": 7400,
      "führer": 7401,
      "herausgefunden": 7402,
      "creatures": 7403,
      "correct": 7404,
      "fährt": 7405,
      "Lebensmittel": 7406,
      "Drittel": 7407,
      "signal": 7408,
      "Männern": 7409,
      "Bedingungen": 7410,
      "Gesellschaften": 7411,
      "hielten": 7412,
      "Treib": 7413,
      "mountain": 7414,
      "competition": 7415,
      "comfortable": 7416,
      "phenomenon": 7417,
      "mittler": 7418,
      "Abs": 7419,
      "Liter": 7420,
      "Pingu": 7421,
      "Up": 7422,
      "Zucker": 7423,
      "diversity": 7424,
      "erhält": 7425,
      "ermöglichen": 7426,
      "anno": 7427,
      "unbedingt": 7428,
      "umgehen": 7429,
      "usive": 7430,
      "pest": 7431,
      "doc": 7432,
      "adig": 7433,
      "überzeugen": 7434,
      "ibes": 7435,
      "acting": 7436,
      "esehen": 7437,
      "freund": 7438,
      "heads": 7439,
      "physic": 7440,
      "moments": 7441,
      "assem": 7442,
      "nähr": 7443,
      "zeichen": 7444,
      "holding": 7445,
      "Diagr": 7446,
      "wissenschaftliche": 7447,
      "Disk": 7448,
      "streets": 7449,
      "Fleisch": 7450,
      "structures": 7451,
      "kommunizieren": 7452,
      "Präsident": 7453,
      "verständlich": 7454,
      "Jungs": 7455,
      "Kaffe": 7456,
      "Mas": 7457,
      "Nation": 7458,
      "Sah": 7459,
      "kers": 7460,
      "ala": 7461,
      "orgt": 7462,
      "tolle": 7463,
      "iron": 7464,
      "verfolgen": 7465,
      "hest": 7466,
      "aming": 7467,
      "umente": 7468,
      "grab": 7469,
      "ained": 7470,
      "Stift": 7471,
      "dafr": 7472,
      "starb": 7473,
      "brings": 7474,
      "gewicht": 7475,
      "Deut": 7476,
      "Bildungs": 7477,
      "organic": 7478,
      "Kohlen": 7479,
      "haupts": 7480,
      "höch": 7481,
      "Irak": 7482,
      "collap": 7483,
      "sequences": 7484,
      "Naja": 7485,
      "Sometimes": 7486,
      "buchstä": 7487,
      "beschäftigt": 7488,
      "Risiko": 7489,
      "Fortschritt": 7490,
      "Affen": 7491,
      "Dimens": 7492,
      "Eing": 7493,
      "laut": 7494,
      "museum": 7495,
      "tour": 7496,
      "ua": 7497,
      "via": 7498,
      "cha": 7499,
      "theit": 7500,
      "seat": 7501,
      "nets": 7502,
      "ety": 7503,
      "concer": 7504,
      "hergestellt": 7505,
      "liebt": 7506,
      "Eins": 7507,
      "unternehmen": 7508,
      "1980": 7509,
      "setzte": 7510,
      "breath": 7511,
      "2005": 7512,
      "Impf": 7513,
      "choices": 7514,
      "wichtigste": 7515,
      "distance": 7516,
      "entwickelten": 7517,
      "investment": 7518,
      "Nichts": 7519,
      "reduce": 7520,
      "Kurz": 7521,
      "Schwester": 7522,
      "nearly": 7523,
      "philosophy": 7524,
      "\"-": 7525,
      ".'": 7526,
      "Bush": 7527,
      "Emot": 7528,
      "Gh": 7529,
      "Jim": 7530,
      "Valley": 7531,
      "cies": 7532,
      "ners": 7533,
      "sess": 7534,
      "ösen": 7535,
      "aspect": 7536,
      "degree": 7537,
      "dens": 7538,
      "veröffent": 7539,
      "sogenann": 7540,
      "meat": 7541,
      "ulen": 7542,
      "ulations": 7543,
      "Innen": 7544,
      "desert": 7545,
      "appen": 7546,
      "Geo": 7547,
      "Erfind": 7548,
      "iox": 7549,
      "2009": 7550,
      "corpor": 7551,
      "freien": 7552,
      "Sprachen": 7553,
      "Once": 7554,
      "tempt": 7555,
      "Carol": 7556,
      "General": 7557,
      "opportunities": 7558,
      "Wald": 7559,
      "gefährlich": 7560,
      "Titan": 7561,
      "Wahrscheinlichkeit": 7562,
      "maschine": 7563,
      "Zivilis": 7564,
      "Ameisen": 7565,
      "Dinosaurier": 7566,
      "Drogen": 7567,
      "Pfer": 7568,
      "SW": 7569,
      "dur": 7570,
      "rück": 7571,
      "sister": 7572,
      "y_": 7573,
      "anst": 7574,
      "accur": 7575,
      "umen": 7576,
      "tritt": 7577,
      "hate": 7578,
      "opin": 7579,
      "Weiß": 7580,
      "coast": 7581,
      "serve": 7582,
      "ossen": 7583,
      "ärm": 7584,
      "Aufgaben": 7585,
      "weiteren": 7586,
      "Brenn": 7587,
      "faith": 7588,
      "possibility": 7589,
      "farmers": 7590,
      "vollständig": 7591,
      "Island": 7592,
      "Span": 7593,
      "helping": 7594,
      "hunderte": 7595,
      "photograp": 7596,
      "mothers": 7597,
      "Peter": 7598,
      "Code": 7599,
      "Vielfalt": 7600,
      "typical": 7601,
      "circu": 7602,
      "Hotel": 7603,
      "Zusammenarbeit": 7604,
      "unterschiedlichen": 7605,
      "trägt": 7606,
      "describe": 7607,
      "Autor": 7608,
      "Quadrat": 7609,
      "gebildet": 7610,
      "commercial": 7611,
      "Higgs": 7612,
      "husband": 7613,
      "Ku": 7614,
      "Zweitens": 7615,
      "fisch": 7616,
      "tte": 7617,
      "tue": 7618,
      "zil": 7619,
      "itter": 7620,
      "behalten": 7621,
      "entsteht": 7622,
      "utter": 7623,
      "truck": 7624,
      "auseinander": 7625,
      "iban": 7626,
      "Ther": 7627,
      "anges": 7628,
      "poetry": 7629,
      "gelangen": 7630,
      "konstru": 7631,
      "barr": 7632,
      "ester": 7633,
      "wahl": 7634,
      "forever": 7635,
      "Ausbildung": 7636,
      "carto": 7637,
      "elements": 7638,
      "basiert": 7639,
      "gestalten": 7640,
      "erzähle": 7641,
      "calls": 7642,
      "Geräte": 7643,
      "Objekte": 7644,
      "außerdem": 7645,
      "Großteil": 7646,
      "easier": 7647,
      "investieren": 7648,
      "addition": 7649,
      "Bauern": 7650,
      "kriegen": 7651,
      "behandelt": 7652,
      "töten": 7653,
      "determin": 7654,
      "yram": 7655,
      "dieselbe": 7656,
      "nannte": 7657,
      "Klimawandel": 7658,
      "Aug": 7659,
      "Ham": 7660,
      "Lat": 7661,
      "Lab": 7662,
      "Wa": 7663,
      "dank": 7664,
      "fiel": 7665,
      "erc": 7666,
      "stro": 7667,
      "städ": 7668,
      "meist": 7669,
      "Schu": 7670,
      "urcht": 7671,
      "geladen": 7672,
      "nett": 7673,
      "Wieso": 7674,
      "begins": 7675,
      "detwas": 7676,
      "regular": 7677,
      "wunderbare": 7678,
      "Post": 7679,
      "falsche": 7680,
      "appeared": 7681,
      "benefit": 7682,
      "alifornien": 7683,
      "täglich": 7684,
      "berühm": 7685,
      "Micros": 7686,
      "DP": 7687,
      "Fas": 7688,
      "Hunder": 7689,
      "II": 7690,
      "Maus": 7691,
      "Ve": 7692,
      "Vis": 7693,
      "Videos": 7694,
      "Zimmer": 7695,
      "caught": 7696,
      "ibed": 7697,
      "lack": 7698,
      "unte": 7699,
      "einiger": 7700,
      "omin": 7701,
      "vermutlich": 7702,
      "icted": 7703,
      "nest": 7704,
      "meters": 7705,
      "brief": 7706,
      "dahin": 7707,
      "nachts": 7708,
      "ugier": 7709,
      "Zeichen": 7710,
      "speech": 7711,
      "hyper": 7712,
      "Kontakt": 7713,
      "shouldn": 7714,
      "betrie": 7715,
      "Fotograf": 7716,
      "walls": 7717,
      "Texas": 7718,
      "necessary": 7719,
      "Leistung": 7720,
      "agriculture": 7721,
      "Angeles": 7722,
      "veröffentlicht": 7723,
      "IP": 7724,
      "ew": 7725,
      "ias": 7726,
      "shr": 7727,
      "uary": 7728,
      "wagen": 7729,
      "ansen": 7730,
      "beis": 7731,
      "beige": 7732,
      "zukünft": 7733,
      "entwerfen": 7734,
      "ilität": 7735,
      "ower": 7736,
      "bright": 7737,
      "apprec": 7738,
      "Stein": 7739,
      "davor": 7740,
      "drin": 7741,
      "scar": 7742,
      "Gründen": 7743,
      "durchgeführt": 7744,
      "adel": 7745,
      "brauche": 7746,
      "foreign": 7747,
      "spring": 7748,
      "2006": 7749,
      "organizations": 7750,
      "politischen": 7751,
      "Kompon": 7752,
      "Does": 7753,
      "collective": 7754,
      "Denk": 7755,
      "hinge": 7756,
      "equip": 7757,
      "dauert": 7758,
      "Experten": 7759,
      "Everybody": 7760,
      "Modelle": 7761,
      "respond": 7762,
      "jährige": 7763,
      "Institute": 7764,
      "responsibility": 7765,
      "beeinflussen": 7766,
      "placed": 7767,
      "zufällig": 7768,
      "citizens": 7769,
      "Wettbewer": 7770,
      "Soldaten": 7771,
      "dolphin": 7772,
      "buchstäblich": 7773,
      "700": 7774,
      "Ecke": 7775,
      "Hör": 7776,
      "Mat": 7777,
      "Oly": 7778,
      "Pac": 7779,
      "Sar": 7780,
      "dome": 7781,
      "hne": 7782,
      "lös": 7783,
      "ole": 7784,
      "sac": 7785,
      "asche": 7786,
      "reib": 7787,
      "regel": 7788,
      "bees": 7789,
      "bell": 7790,
      "alleine": 7791,
      "hai": 7792,
      "ifying": 7793,
      "etime": 7794,
      "sparen": 7795,
      "female": 7796,
      "planning": 7797,
      "Start": 7798,
      "getö": 7799,
      "Gras": 7800,
      "subst": 7801,
      "teles": 7802,
      "colors": 7803,
      "Bildschirm": 7804,
      "shoes": 7805,
      "fingen": 7806,
      "paint": 7807,
      "erinnert": 7808,
      "Talk": 7809,
      "mathematics": 7810,
      "Städten": 7811,
      "slowly": 7812,
      "Perspektive": 7813,
      "Teles": 7814,
      "Amazon": 7815,
      "Cr": 7816,
      "Os": 7817,
      "Tro": 7818,
      "dou": 7819,
      "narr": 7820,
      "treiben": 7821,
      "uert": 7822,
      "vast": 7823,
      "wahre": 7824,
      "stolz": 7825,
      "ising": 7826,
      "verbracht": 7827,
      "schalten": 7828,
      "wirkt": 7829,
      "aufs": 7830,
      "opposite": 7831,
      "fell": 7832,
      "notion": 7833,
      "Begriff": 7834,
      "Statt": 7835,
      "itete": 7836,
      "hinweg": 7837,
      "blings": 7838,
      "flat": 7839,
      "langweil": 7840,
      "hypo": 7841,
      "TEDx": 7842,
      "filled": 7843,
      "opened": 7844,
      "Joe": 7845,
      "Wahrneh": 7846,
      "engineers": 7847,
      "However": 7848,
      "chemistry": 7849,
      "leads": 7850,
      "studied": 7851,
      "Organisationen": 7852,
      "Planet": 7853,
      "nationale": 7854,
      "failure": 7855,
      "probieren": 7856,
      "influence": 7857,
      "Audience": 7858,
      "Brazil": 7859,
      "gesellschaft": 7860,
      "Metapher": 7861,
      "Ghana": 7862,
      "Ill": 7863,
      "Ug": 7864,
      "Wil": 7865,
      "gän": 7866,
      "othe": 7867,
      "zone": 7868,
      "ziel": 7869,
      "äss": 7870,
      "stone": 7871,
      "asks": 7872,
      "teid": 7873,
      "loge": 7874,
      "acted": 7875,
      "agne": 7876,
      "libr": 7877,
      "ulf": 7878,
      "gruppe": 7879,
      "Schmerz": 7880,
      "resol": 7881,
      "discovery": 7882,
      "wiederum": 7883,
      "factory": 7884,
      "ohle": 7885,
      "schlimmer": 7886,
      "2004": 7887,
      "lesson": 7888,
      "zeiten": 7889,
      "betrifft": 7890,
      "gefangen": 7891,
      "Bildern": 7892,
      "fordert": 7893,
      "hältnis": 7894,
      "circle": 7895,
      "leading": 7896,
      "perfectly": 7897,
      "Kapit": 7898,
      "Militär": 7899,
      "sustainability": 7900,
      "Mexico": 7901,
      "Moral": 7902,
      "suffering": 7903,
      "fassung": 7904,
      "Stanford": 7905,
      "begeistert": 7906,
      "Olymp": 7907,
      "Dop": 7908,
      "Hall": 7909,
      "Spre": 7910,
      "tough": 7911,
      "ym": 7912,
      "erv": 7913,
      "incent": 7914,
      "onie": 7915,
      "immun": 7916,
      "trip": 7917,
      "steps": 7918,
      "übertragen": 7919,
      "ibilities": 7920,
      "wohin": 7921,
      "heran": 7922,
      "drückt": 7923,
      "thinks": 7924,
      "nochmal": 7925,
      "spect": 7926,
      "idents": 7927,
      "disaster": 7928,
      "1970": 7929,
      "gewisser": 7930,
      "Flor": 7931,
      "matters": 7932,
      "Korea": 7933,
      "accident": 7934,
      "entwickelte": 7935,
      "biom": 7936,
      "arbeiteten": 7937,
      "Babys": 7938,
      "Schwier": 7939,
      "llowed": 7940,
      "Budd": 7941,
      "intellect": 7942,
      "irgendetwas": 7943,
      "Unterstützung": 7944,
      "Eindr": 7945,
      "hauptsächlich": 7946,
      "Egypt": 7947,
      "Gas": 7948,
      "Kn": 7949,
      "Sein": 7950,
      "Sud": 7951,
      "Satz": 7952,
      "Tie": 7953,
      "Tumor": 7954,
      "dinner": 7955,
      "ßt": 7956,
      "aters": 7957,
      "ald": 7958,
      "leiten": 7959,
      "sector": 7960,
      "gehabt": 7961,
      "derzeit": 7962,
      "weird": 7963,
      "schule": 7964,
      "imit": 7965,
      "sensit": 7966,
      "compar": 7967,
      "ulated": 7968,
      "proud": 7969,
      "angesehen": 7970,
      "Verstand": 7971,
      "Verkehr": 7972,
      "Reich": 7973,
      "wake": 7974,
      "raw": 7975,
      "creation": 7976,
      "helps": 7977,
      "Untersuch": 7978,
      "Gesetze": 7979,
      "cortex": 7980,
      "interessieren": 7981,
      "Fällen": 7982,
      "Lieblings": 7983,
      "equal": 7984,
      "religious": 7985,
      "schaute": 7986,
      "jährigen": 7987,
      "rupt": 7988,
      "professional": 7989,
      "schwarz": 7990,
      "civilization": 7991,
      "Aktivität": 7992,
      "Galaxien": 7993,
      "ernsth": 7994,
      "Qualität": 7995,
      "remote": 7996,
      "advantage": 7997,
      "Experimente": 7998,
      "Microsoft": 7999,
      "Fel": 8000,
      "Sor": 8001,
      "Sing": 8002,
      "gers": 8003,
      "jahr": 8004,
      "laptop": 8005,
      "nut": 8006,
      "oo": 8007,
      "pite": 8008,
      "instrument": 8009,
      "repe": 8010,
      "seed": 8011,
      "geist": 8012,
      "istische": 8013,
      "sper": 8014,
      "grat": 8015,
      "article": 8016,
      "Lebe": 8017,
      "merk": 8018,
      "Ernähr": 8019,
      "boten": 8020,
      "hohen": 8021,
      "puts": 8022,
      "everyday": 8023,
      "Seit": 8024,
      "starke": 8025,
      "brauchten": 8026,
      "besuch": 8027,
      "avoid": 8028,
      "wegs": 8029,
      "belief": 8030,
      "wahren": 8031,
      "atures": 8032,
      "irgendwann": 8033,
      "ification": 8034,
      "harder": 8035,
      "Problemen": 8036,
      "languages": 8037,
      "emotions": 8038,
      "ähnliche": 8039,
      "wärt": 8040,
      "events": 8041,
      "bemerkt": 8042,
      "Jugend": 8043,
      "origin": 8044,
      "consumption": 8045,
      "Wandel": 8046,
      "wohner": 8047,
      "doppelt": 8048,
      "Häuser": 8049,
      "galaxies": 8050,
      "wisdom": 8051,
      "weapons": 8052,
      "Derek": 8053,
      "Oxford": 8054,
      "getötet": 8055,
      "Bett": 8056,
      "Fund": 8057,
      "Law": 8058,
      "Mund": 8059,
      "blichkeit": 8060,
      "jump": 8061,
      "sou": 8062,
      "wich": 8063,
      "yer": 8064,
      "zelle": 8065,
      "ühren": 8066,
      "replic": 8067,
      "arms": 8068,
      "gezogen": 8069,
      "vertr": 8070,
      "vertrauen": 8071,
      "veget": 8072,
      "gender": 8073,
      "meter": 8074,
      "warming": 8075,
      "advert": 8076,
      "adults": 8077,
      "werte": 8078,
      "Three": 8079,
      "justice": 8080,
      "angel": 8081,
      "195": 8082,
      "anderem": 8083,
      "zurückzu": 8084,
      "venture": 8085,
      "Defin": 8086,
      "believed": 8087,
      "engage": 8088,
      "airplane": 8089,
      "bloß": 8090,
      "limited": 8091,
      "trained": 8092,
      "entirely": 8093,
      "Streit": 8094,
      "transportation": 8095,
      "kompliziert": 8096,
      "raised": 8097,
      "kümmern": 8098,
      "Konflikt": 8099,
      "Gewebe": 8100,
      "Les": 8101,
      "UN": 8102,
      "iP": 8103,
      "izen": 8104,
      "iples": 8105,
      "mi": 8106,
      "pus": 8107,
      "south": 8108,
      "chicken": 8109,
      "stuck": 8110,
      "isierte": 8111,
      "destens": 8112,
      "rochen": 8113,
      "traur": 8114,
      "gold": 8115,
      "eler": 8116,
      "ida": 8117,
      "Themen": 8118,
      "apped": 8119,
      "Schimp": 8120,
      "lieber": 8121,
      "interagieren": 8122,
      "partment": 8123,
      "gelesen": 8124,
      "disorder": 8125,
      "ungskraft": 8126,
      "viruses": 8127,
      "2001": 8128,
      "berech": 8129,
      "identity": 8130,
      "Minute": 8131,
      "richtungen": 8132,
      "normale": 8133,
      "sorgen": 8134,
      "Produktion": 8135,
      "linken": 8136,
      "argue": 8137,
      "consumer": 8138,
      "promise": 8139,
      "bomb": 8140,
      "Opfer": 8141,
      "forschung": 8142,
      "Kein": 8143,
      "NG": 8144,
      "Nutz": 8145,
      "Willi": 8146,
      "email": 8147,
      "hte": 8148,
      "lernt": 8149,
      "satell": 8150,
      "wü": 8151,
      "ency": 8152,
      "inkt": 8153,
      "iest": 8154,
      "auern": 8155,
      "bee": 8156,
      "gency": 8157,
      "elte": 8158,
      "iding": 8159,
      "fresh": 8160,
      "fehlen": 8161,
      "Ins": 8162,
      "interface": 8163,
      "gespiel": 8164,
      "crash": 8165,
      "1950": 8166,
      "Kontext": 8167,
      "relativ": 8168,
      "failed": 8169,
      "versuchten": 8170,
      "corruption": 8171,
      "struktur": 8172,
      "farm": 8173,
      "voc": 8174,
      "operating": 8175,
      "servation": 8176,
      "Gesundheitsw": 8177,
      "bereitet": 8178,
      "Viren": 8179,
      "Organismen": 8180,
      "responsible": 8181,
      "marketing": 8182,
      "Moleküle": 8183,
      "spüren": 8184,
      "bezahlt": 8185,
      "verantwortlich": 8186,
      "victim": 8187,
      "Kaffee": 8188,
      "Each": 8189,
      "Gand": 8190,
      "Haufen": 8191,
      "Kalifornien": 8192,
      "Que": 8193,
      "Tö": 8194,
      "ahe": 8195,
      "hes": 8196,
      "ror": 8197,
      "erweit": 8198,
      "itzt": 8199,
      "tox": 8200,
      "heisst": 8201,
      "aufhören": 8202,
      "benutz": 8203,
      "überzeugt": 8204,
      "Schne": 8205,
      "shif": 8206,
      "vorhand": 8207,
      "drüben": 8208,
      "followed": 8209,
      "musst": 8210,
      "damage": 8211,
      "insight": 8212,
      "empt": 8213,
      "natur": 8214,
      "wave": 8215,
      "welchen": 8216,
      "president": 8217,
      "gegenseit": 8218,
      "Handy": 8219,
      "beln": 8220,
      "childhood": 8221,
      "leaving": 8222,
      "broad": 8223,
      "limit": 8224,
      "Kenya": 8225,
      "rapid": 8226,
      "hidden": 8227,
      "Grafik": 8228,
      "Polizei": 8229,
      "esterday": 8230,
      "gespielt": 8231,
      "Come": 8232,
      "Emp": 8233,
      "Fer": 8234,
      "Other": 8235,
      "Pfe": 8236,
      "Spiegel": 8237,
      "fan": 8238,
      "mile": 8239,
      "pages": 8240,
      "uar": 8241,
      "zed": 8242,
      "erster": 8243,
      "alog": 8244,
      "beteil": 8245,
      "ropo": 8246,
      "amt": 8247,
      "moves": 8248,
      "fried": 8249,
      "Theater": 8250,
      "quas": 8251,
      "quenz": 8252,
      "otic": 8253,
      "cloud": 8254,
      "bares": 8255,
      "bestimmen": 8256,
      "Zuerst": 8257,
      "Ihres": 8258,
      "importantly": 8259,
      "members": 8260,
      "religi": 8261,
      "fighting": 8262,
      "experiences": 8263,
      "spannen": 8264,
      "shapes": 8265,
      "Heimat": 8266,
      "Ac": 8267,
      "BC": 8268,
      "Dy": 8269,
      "Day": 8270,
      "Fische": 8271,
      "Fett": 8272,
      "Kle": 8273,
      "Mütter": 8274,
      "Net": 8275,
      "Top": 8276,
      "günst": 8277,
      "nutr": 8278,
      "erstellen": 8279,
      "inform": 8280,
      "invisible": 8281,
      "unfortunately": 8282,
      "reve": 8283,
      "replace": 8284,
      "ises": 8285,
      "ifically": 8286,
      "ometers": 8287,
      "illustr": 8288,
      "Gefahr": 8289,
      "portion": 8290,
      "volunte": 8291,
      "fähigkeit": 8292,
      "iano": 8293,
      "surprise": 8294,
      "fourth": 8295,
      "meistens": 8296,
      "graphie": 8297,
      "Spieler": 8298,
      "gather": 8299,
      "acceler": 8300,
      "equivalent": 8301,
      "bekannten": 8302,
      "fields": 8303,
      "beeindruck": 8304,
      "itäts": 8305,
      "billions": 8306,
      "Klima": 8307,
      "universal": 8308,
      "virtual": 8309,
      "wearing": 8310,
      "separate": 8311,
      "nützlich": 8312,
      "überrascht": 8313,
      "constantly": 8314,
      "Erkenntnis": 8315,
      "_for_": 8316,
      "Uganda": 8317,
      "36": 8318,
      "Akt": 8319,
      "Eig": 8320,
      "Garten": 8321,
      "Have": 8322,
      "Klang": 8323,
      "Rot": 8324,
      "Seine": 8325,
      "aks": 8326,
      "hst": 8327,
      "lungs": 8328,
      "mur": 8329,
      "ober": 8330,
      "pun": 8331,
      "theoret": 8332,
      "entworfen": 8333,
      "Inform": 8334,
      "coal": 8335,
      "ideal": 8336,
      "setting": 8337,
      "20th": 8338,
      "paralle": 8339,
      "mindestens": 8340,
      "führten": 8341,
      "besseren": 8342,
      "Antar": 8343,
      "Kindheit": 8344,
      "Obwohl": 8345,
      "Elektro": 8346,
      "continent": 8347,
      "bauten": 8348,
      "Virgin": 8349,
      "modell": 8350,
      "praktisch": 8351,
      "protein": 8352,
      "vehicle": 8353,
      "iabetes": 8354,
      "Hollywood": 8355,
      "KB": 8356,
      "Kohle": 8357,
      "Rie": 8358,
      "ffe": 8359,
      "jum": 8360,
      "lunch": 8361,
      "mad": 8362,
      "pum": 8363,
      "tor": 8364,
      "thur": 8365,
      "theorie": 8366,
      "island": 8367,
      "icing": 8368,
      "soil": 8369,
      "usw": 8370,
      "ceed": 8371,
      "desire": 8372,
      "vorzu": 8373,
      "igend": 8374,
      "Project": 8375,
      "boom": 8376,
      "fügt": 8377,
      "Grenze": 8378,
      "istence": 8379,
      "Bron": 8380,
      "cycl": 8381,
      "Malaria": 8382,
      "closed": 8383,
      "identif": 8384,
      "horse": 8385,
      "Gedanke": 8386,
      "existieren": 8387,
      "molecule": 8388,
      "seriously": 8389,
      "Stoff": 8390,
      "begeg": 8391,
      "principles": 8392,
      "fascinating": 8393,
      "Außerdem": 8394,
      "Martin": 8395,
      "debate": 8396,
      "verhindern": 8397,
      "Bib": 8398,
      "Hen": 8399,
      "Sir": 8400,
      "Women": 8401,
      "fabr": 8402,
      "lap": 8403,
      "zliche": 8404,
      "atoren": 8405,
      "iche": 8406,
      "isher": 8407,
      "decl": 8408,
      "zuzu": 8409,
      "icket": 8410,
      "allge": 8411,
      "ilfe": 8412,
      "illegal": 8413,
      "tert": 8414,
      "iern": 8415,
      "managed": 8416,
      "worried": 8417,
      "explan": 8418,
      "construction": 8419,
      "Erleb": 8420,
      "Verbre": 8421,
      "malaria": 8422,
      "muscle": 8423,
      "ipp": 8424,
      "netz": 8425,
      "resource": 8426,
      "geschickt": 8427,
      "achtung": 8428,
      "gebrochen": 8429,
      "gesto": 8430,
      "gestern": 8431,
      "generate": 8432,
      "legte": 8433,
      "capable": 8434,
      "schlechter": 8435,
      "photos": 8436,
      "rotz": 8437,
      "Everything": 8438,
      "appropr": 8439,
      "wissenschaftlichen": 8440,
      "komplexe": 8441,
      "university": 8442,
      "erkannte": 8443,
      "Kräfte": 8444,
      "aufregend": 8445,
      "hoffentlich": 8446,
      "normally": 8447,
      "concerned": 8448,
      "37": 8449,
      "Dok": 8450,
      "Pra": 8451,
      "Roh": 8452,
      "Wild": 8453,
      "clip": 8454,
      "uel": 8455,
      "vas": 8456,
      "engl": 8457,
      "ino": 8458,
      "teeth": 8459,
      "section": 8460,
      "bekamen": 8461,
      "absor": 8462,
      "roten": 8463,
      "keys": 8464,
      "agers": 8465,
      "ifik": 8466,
      "unsicht": 8467,
      "ischt": 8468,
      "ctic": 8469,
      "Dass": 8470,
      "könnt": 8471,
      "Beweis": 8472,
      "Verletz": 8473,
      "gerät": 8474,
      "finish": 8475,
      "display": 8476,
      "itionen": 8477,
      "organized": 8478,
      "cultures": 8479,
      "vote": 8480,
      "richtung": 8481,
      "harm": 8482,
      "normalen": 8483,
      "allerdings": 8484,
      "treated": 8485,
      "privile": 8486,
      "grandmother": 8487,
      "multiple": 8488,
      "Katastrop": 8489,
      "wechseln": 8490,
      "Andere": 8491,
      "distribution": 8492,
      "mentioned": 8493,
      "Etwas": 8494,
      "Schnitt": 8495,
      "Lebewesen": 8496,
      "Batter": 8497,
      "Händen": 8498,
      "Jem": 8499,
      "Rat": 8500,
      "Swe": 8501,
      "Sub": 8502,
      "Sitz": 8503,
      "pted": 8504,
      "ößen": 8505,
      "erled": 8506,
      "schick": 8507,
      "icate": 8508,
      "bra": 8509,
      "cking": 8510,
      "exhib": 8511,
      "exerc": 8512,
      "grid": 8513,
      "deswegen": 8514,
      "Arg": 8515,
      "interaction": 8516,
      "starten": 8517,
      "emiss": 8518,
      "müsste": 8519,
      "lebens": 8520,
      "springen": 8521,
      "Landwirtschaft": 8522,
      "grown": 8523,
      "opening": 8524,
      "horiz": 8525,
      "leaves": 8526,
      "independent": 8527,
      "plicity": 8528,
      "engineer": 8529,
      "bietet": 8530,
      "sugar": 8531,
      "drawing": 8532,
      "majority": 8533,
      "survival": 8534,
      "described": 8535,
      "Standard": 8536,
      "dimensions": 8537,
      "Lasst": 8538,
      "fossil": 8539,
      "dinosaurs": 8540,
      "Öffentlich": 8541,
      "dürfen": 8542,
      "heavy": 8543,
      "Kohlenstoff": 8544,
      "Eindruck": 8545,
      "Eigentlich": 8546,
      "38": 8547,
      "Aust": 8548,
      "Lad": 8549,
      "Sur": 8550,
      "Zahn": 8551,
      "_in_": 8552,
      "gä": 8553,
      "kat": 8554,
      "nic": 8555,
      "einsetzen": 8556,
      "utt": 8557,
      "trum": 8558,
      "Inde": 8559,
      "halbe": 8560,
      "Rep": 8561,
      "angehen": 8562,
      "akten": 8563,
      "Vorteil": 8564,
      "avig": 8565,
      "Mont": 8566,
      "skop": 8567,
      "Abschluss": 8568,
      "Gehirne": 8569,
      "möglicherweise": 8570,
      "Schlaf": 8571,
      "studio": 8572,
      "Irgend": 8573,
      "Weltraum": 8574,
      "layer": 8575,
      "stabil": 8576,
      "morgens": 8577,
      "öpfe": 8578,
      "Identität": 8579,
      "document": 8580,
      "quasi": 8581,
      "Could": 8582,
      "Fliegen": 8583,
      "Hins": 8584,
      "Kleid": 8585,
      "Ple": 8586,
      "ell": 8587,
      "tumor": 8588,
      "uit": 8589,
      "zunächst": 8590,
      "erscheinen": 8591,
      "ito": 8592,
      "refer": 8593,
      "heil": 8594,
      "eline": 8595,
      "mov": 8596,
      "uliert": 8597,
      "sichten": 8598,
      "illness": 8599,
      "Stimmen": 8600,
      "jekten": 8601,
      "driven": 8602,
      "unterscheiden": 8603,
      "mlung": 8604,
      "married": 8605,
      "attach": 8606,
      "highest": 8607,
      "phan": 8608,
      "Boy": 8609,
      "motion": 8610,
      "interessanter": 8611,
      "schneiden": 8612,
      "dreams": 8613,
      "chnung": 8614,
      "magazine": 8615,
      "Element": 8616,
      "signals": 8617,
      "heimer": 8618,
      "circum": 8619,
      "western": 8620,
      "European": 8621,
      "Besonder": 8622,
      "tags": 8623,
      "convinc": 8624,
      "roughly": 8625,
      "dafrika": 8626,
      "Hinsicht": 8627,
      "98": 8628,
      "Hallo": 8629,
      "Rahmen": 8630,
      "Tes": 8631,
      "battle": 8632,
      "oth": 8633,
      "sä": 8634,
      "infin": 8635,
      "stür": 8636,
      "stup": 8637,
      "vergleichen": 8638,
      "Weile": 8639,
      "perman": 8640,
      "Their": 8641,
      "exists": 8642,
      "expression": 8643,
      "constr": 8644,
      "merzen": 8645,
      "Belo": 8646,
      "Stär": 8647,
      "Ansicht": 8648,
      "due": 8649,
      "Union": 8650,
      "Health": 8651,
      "Außen": 8652,
      "ffiz": 8653,
      "Interaktion": 8654,
      "designing": 8655,
      "Prize": 8656,
      "Präsent": 8657,
      "north": 8658,
      "beschleun": 8659,
      "transformation": 8660,
      "investig": 8661,
      "channel": 8662,
      "spielte": 8663,
      "Gegenteil": 8664,
      "zugän": 8665,
      "deeply": 8666,
      "adox": 8667,
      "stärker": 8668,
      "wesentlich": 8669,
      "verwandeln": 8670,
      "principle": 8671,
      "Smith": 8672,
      "graduate": 8673,
      "houses": 8674,
      "vorhanden": 8675,
      "Bob": 8676,
      "PC": 8677,
      "RB": 8678,
      "deinen": 8679,
      "fiber": 8680,
      "erscheint": 8681,
      "chain": 8682,
      "ardo": 8683,
      "detail": 8684,
      "weib": 8685,
      "zubringen": 8686,
      "entliche": 8687,
      "entspricht": 8688,
      "implic": 8689,
      "agos": 8690,
      "liothe": 8691,
      "worüber": 8692,
      "Website": 8693,
      "Inst": 8694,
      "shoul": 8695,
      "quer": 8696,
      "Erzä": 8697,
      "dran": 8698,
      "otherwise": 8699,
      "stress": 8700,
      "ialog": 8701,
      "Zeich": 8702,
      "sser": 8703,
      "gesund": 8704,
      "solid": 8705,
      "vessel": 8706,
      "fält": 8707,
      "Konsequ": 8708,
      "genauer": 8709,
      "Prim": 8710,
      "Mount": 8711,
      "lessons": 8712,
      "status": 8713,
      "wirtschaftlichen": 8714,
      "Talks": 8715,
      "Korallen": 8716,
      "Welche": 8717,
      "Japanese": 8718,
      "invited": 8719,
      "surprised": 8720,
      "fördern": 8721,
      "require": 8722,
      "homes": 8723,
      "Cambridge": 8724,
      "Photo": 8725,
      "Privat": 8726,
      "Details": 8727,
      "struggle": 8728,
      "Deutsch": 8729,
      "Öffentlichkeit": 8730,
      "Dad": 8731,
      "Fast": 8732,
      "Nationen": 8733,
      "Ost": 8734,
      "Pu": 8735,
      "Pfle": 8736,
      "Sw": 8737,
      "Tony": 8738,
      "gun": 8739,
      "pure": 8740,
      "videos": 8741,
      "eingesetzt": 8742,
      "aust": 8743,
      "schien": 8744,
      "meiste": 8745,
      "wire": 8746,
      "lyn": 8747,
      "Schwer": 8748,
      "quiet": 8749,
      "ears": 8750,
      "halts": 8751,
      "tape": 8752,
      "chemic": 8753,
      "hasn": 8754,
      "Zell": 8755,
      "ients": 8756,
      "Voraus": 8757,
      "Manhat": 8758,
      "hörten": 8759,
      "Mechan": 8760,
      "Krise": 8761,
      "Prä": 8762,
      "sprachen": 8763,
      "uckt": 8764,
      "curious": 8765,
      "Werbung": 8766,
      "clock": 8767,
      "ruhig": 8768,
      "Jeden": 8769,
      "tests": 8770,
      "hopefully": 8771,
      "Augenblick": 8772,
      "swim": 8773,
      "evil": 8774,
      "killing": 8775,
      "contact": 8776,
      "Herausforderungen": 8777,
      "Psych": 8778,
      "ähne": 8779,
      "strategy": 8780,
      "galaxy": 8781,
      "employe": 8782,
      "budget": 8783,
      "Aspekt": 8784,
      "plomat": 8785,
      "lustig": 8786,
      "stammt": 8787,
      "equipment": 8788,
      "chemicals": 8789,
      "Abr": 8790,
      "Gates": 8791,
      "Ober": 8792,
      "PM": 8793,
      "Viet": 8794,
      "Wet": 8795,
      "echten": 8796,
      "kins": 8797,
      "nar": 8798,
      "rum": 8799,
      "wil": 8800,
      "itual": 8801,
      "orbit": 8802,
      "ordent": 8803,
      "tober": 8804,
      "toward": 8805,
      "teste": 8806,
      "ifer": 8807,
      "dots": 8808,
      "frist": 8809,
      "mented": 8810,
      "brach": 8811,
      "ckte": 8812,
      "fellow": 8813,
      "artific": 8814,
      "Beob": 8815,
      "Stau": 8816,
      "shall": 8817,
      "asten": 8818,
      "liest": 8819,
      "caused": 8820,
      "Algorith": 8821,
      "gling": 8822,
      "wenigen": 8823,
      "prefer": 8824,
      "Vorfahren": 8825,
      "Ford": 8826,
      "awful": 8827,
      "sprech": 8828,
      "compare": 8829,
      "Dabei": 8830,
      "holes": 8831,
      "kurzen": 8832,
      "Doktor": 8833,
      "Elemente": 8834,
      "schrift": 8835,
      "zoom": 8836,
      "kreis": 8837,
      "Gegensatz": 8838,
      "paying": 8839,
      "Folge": 8840,
      "Durchschnitt": 8841,
      "Milch": 8842,
      "Symme": 8843,
      "beinhal": 8844,
      "ultimately": 8845,
      "Operation": 8846,
      "effektiv": 8847,
      "philanth": 8848,
      "Dach": 8849,
      "Damen": 8850,
      "Eben": 8851,
      "Ganze": 8852,
      "LED": 8853,
      "Yo": 8854,
      "_we": 8855,
      "blieb": 8856,
      "koll": 8857,
      "lic": 8858,
      "tip": 8859,
      "ystem": 8860,
      "zungen": 8861,
      "äger": 8862,
      "anes": 8863,
      "tocin": 8864,
      "schlau": 8865,
      "hey": 8866,
      "icated": 8867,
      "umge": 8868,
      "steel": 8869,
      "sphäre": 8870,
      "desk": 8871,
      "appar": 8872,
      "illusion": 8873,
      "pray": 8874,
      "poem": 8875,
      "dry": 8876,
      "Eng": 8877,
      "langer": 8878,
      "würd": 8879,
      "Neben": 8880,
      "previous": 8881,
      "krankheit": 8882,
      "sprung": 8883,
      "powered": 8884,
      "beschlossen": 8885,
      "compared": 8886,
      "generations": 8887,
      "Gore": 8888,
      "Spektr": 8889,
      "classroom": 8890,
      "demokrat": 8891,
      "occup": 8892,
      "cutting": 8893,
      "verrück": 8894,
      "pathy": 8895,
      "facing": 8896,
      "riage": 8897,
      "essential": 8898,
      "Kerl": 8899,
      "Entdeckung": 8900,
      "verfügbar": 8901,
      "beantworten": 8902,
      "Erklärung": 8903,
      "effizient": 8904,
      "Saturn": 8905,
      "Emotionen": 8906,
      "Jemand": 8907,
      "Hi": 8908,
      "Kamp": 8909,
      "Lau": 8910,
      "Lern": 8911,
      "Pass": 8912,
      "Zie": 8913,
      "avor": 8914,
      "furcht": 8915,
      "lass": 8916,
      "erfinden": 8917,
      "anwenden": 8918,
      "ieten": 8919,
      "unless": 8920,
      "reisen": 8921,
      "leitet": 8922,
      "geber": 8923,
      "amb": 8924,
      "urer": 8925,
      "umin": 8926,
      "idimens": 8927,
      "liqu": 8928,
      "Sogar": 8929,
      "artigen": 8930,
      "scen": 8931,
      "inning": 8932,
      "Geschle": 8933,
      "garden": 8934,
      "producing": 8935,
      "krä": 8936,
      "ordnung": 8937,
      "2003": 8938,
      "Geräusch": 8939,
      "Normal": 8940,
      "Körpers": 8941,
      "electrical": 8942,
      "wichtigen": 8943,
      "Canada": 8944,
      "Stufe": 8945,
      "sharks": 8946,
      "inspiriert": 8947,
      "thesis": 8948,
      "erstaunliche": 8949,
      "location": 8950,
      "soldiers": 8951,
      "Elektrizität": 8952,
      "kürzlich": 8953,
      "launched": 8954,
      "leuchten": 8955,
      "nervous": 8956,
      "spezif": 8957,
      "notwendig": 8958,
      "Gespräch": 8959,
      "Manhattan": 8960,
      "Found": 8961,
      "Lied": 8962,
      "Open": 8963,
      "Wall": 8964,
      "cular": 8965,
      "nutzt": 8966,
      "rural": 8967,
      "winter": 8968,
      "Ägy": 8969,
      "ita": 8970,
      "restr": 8971,
      "reward": 8972,
      "amed": 8973,
      "former": 8974,
      "agre": 8975,
      "aufbauen": 8976,
      "despite": 8977,
      "apes": 8978,
      "merken": 8979,
      "State": 8980,
      "angesch": 8981,
      "hotel": 8982,
      "Neues": 8983,
      "eleph": 8984,
      "spruch": 8985,
      "player": 8986,
      "experts": 8987,
      "azz": 8988,
      "belieb": 8989,
      "reiche": 8990,
      "coral": 8991,
      "magn": 8992,
      "Kombin": 8993,
      "vibr": 8994,
      "views": 8995,
      "axis": 8996,
      "keeping": 8997,
      "burn": 8998,
      "schrän": 8999,
      "Forscher": 9000,
      "öffentliche": 9001,
      "kehrt": 9002,
      "selling": 9003,
      "Stock": 9004,
      "gründet": 9005,
      "fantastisch": 9006,
      "zerstört": 9007,
      "Institutionen": 9008,
      "Florida": 9009,
      "Four": 9010,
      "Gü": 9011,
      "MA": 9012,
      "Ray": 9013,
      "Richtig": 9014,
      "Satell": 9015,
      "Ul": 9016,
      "gay": 9017,
      "gste": 9018,
      "gment": 9019,
      "jet": 9020,
      "ku": 9021,
      "kolle": 9022,
      "initi": 9023,
      "arre": 9024,
      "ausch": 9025,
      "igno": 9026,
      "verbrauch": 9027,
      "verbrachte": 9028,
      "zufrieden": 9029,
      "neath": 9030,
      "acle": 9031,
      "metal": 9032,
      "spont": 9033,
      "ulin": 9034,
      "ibiot": 9035,
      "önt": 9036,
      "actions": 9037,
      "hlten": 9038,
      "Schiff": 9039,
      "liked": 9040,
      "driver": 9041,
      "fernen": 9042,
      "Teen": 9043,
      "taste": 9044,
      "solved": 9045,
      "diskut": 9046,
      "Auswahl": 9047,
      "colon": 9048,
      "patent": 9049,
      "Rock": 9050,
      "voices": 9051,
      "according": 9052,
      "presentation": 9053,
      "baute": 9054,
      "sexual": 9055,
      "Generationen": 9056,
      "contain": 9057,
      "activism": 9058,
      "Britain": 9059,
      "dynamic": 9060,
      "natürlichen": 9061,
      "mächtig": 9062,
      "Nachbarn": 9063,
      "sports": 9064,
      "President": 9065,
      "Geheimnis": 9066,
      "grosse": 9067,
      "Bruder": 9068,
      "newspaper": 9069,
      "Gesundheitswesen": 9070,
      "Fig": 9071,
      "Hunde": 9072,
      "Lou": 9073,
      "Pen": 9074,
      "Rake": 9075,
      "Wein": 9076,
      "Ziele": 9077,
      "Zauber": 9078,
      "han": 9079,
      "hie": 9080,
      "hip": 9081,
      "ii": 9082,
      "ruf": 9083,
      "tum": 9084,
      "annehmen": 9085,
      "gelt": 9086,
      "gefä": 9087,
      "geändert": 9088,
      "irt": 9089,
      "weather": 9090,
      "istischen": 9091,
      "verblü": 9092,
      "whom": 9093,
      "academ": 9094,
      "etzen": 9095,
      "warf": 9096,
      "auspiel": 9097,
      "maint": 9098,
      "Gem": 9099,
      "ively": 9100,
      "vorne": 9101,
      "ängen": 9102,
      "ängst": 9103,
      "Rechen": 9104,
      "glamour": 9105,
      "bles": 9106,
      "click": 9107,
      "damer": 9108,
      "solch": 9109,
      "geschlagen": 9110,
      "teln": 9111,
      "Play": 9112,
      "players": 9113,
      "Arbeiten": 9114,
      "gegenwärt": 9115,
      "Klein": 9116,
      "letztendlich": 9117,
      "studieren": 9118,
      "testing": 9119,
      "Toilet": 9120,
      "Großmutter": 9121,
      "definieren": 9122,
      "atured": 9123,
      "Bewegungen": 9124,
      "Folie": 9125,
      "unterschiedlich": 9126,
      "sentence": 9127,
      "Politiker": 9128,
      "authent": 9129,
      "persönlich": 9130,
      "wartung": 9131,
      "verbreiten": 9132,
      "verbindet": 9133,
      "gebeten": 9134,
      "Führung": 9135,
      "karte": 9136,
      "durchschnittliche": 9137,
      "grundlegende": 9138,
      "exponent": 9139,
      "spoke": 9140,
      "berührt": 9141,
      "Wahrnehmung": 9142,
      "Schimpansen": 9143,
      "gäbe": 9144,
      "49": 9145,
      "Atem": 9146,
      "Bahn": 9147,
      "Jack": 9148,
      "Mur": 9149,
      "Stop": 9150,
      "bug": 9151,
      "dün": 9152,
      "gap": 9153,
      "hof": 9154,
      "vac": 9155,
      "wom": 9156,
      "erlebt": 9157,
      "erkennt": 9158,
      "ati": 9159,
      "unbe": 9160,
      "unken": 9161,
      "lets": 9162,
      "bestand": 9163,
      "belong": 9164,
      "gewissen": 9165,
      "gehören": 9166,
      "derungen": 9167,
      "abol": 9168,
      "vember": 9169,
      "ichts": 9170,
      "agina": 9171,
      "admit": 9172,
      "graben": 9173,
      "consequences": 9174,
      "maker": 9175,
      "maxim": 9176,
      "plate": 9177,
      "herein": 9178,
      "Gegend": 9179,
      "kombin": 9180,
      "Alp": 9181,
      "letters": 9182,
      "waves": 9183,
      "trait": 9184,
      "factor": 9185,
      "Landschaft": 9186,
      "feelings": 9187,
      "gramm": 9188,
      "morrow": 9189,
      "Klin": 9190,
      "ständen": 9191,
      "Forschungs": 9192,
      "traditionellen": 9193,
      "westlichen": 9194,
      "inclu": 9195,
      "emerging": 9196,
      "verschwinden": 9197,
      "Anyway": 9198,
      "zerstören": 9199,
      "pollution": 9200,
      "Laufe": 9201,
      "target": 9202,
      "reduzieren": 9203,
      "Statistiken": 9204,
      "Wesentlichen": 9205,
      "Zwischen": 9206,
      "associated": 9207,
      "Epidem": 9208,
      "movies": 9209,
      "Vietnam": 9210,
      "Billion": 9211,
      "].": 9212,
      "categ": 9213,
      "cards": 9214,
      "dum": 9215,
      "nchen": 9216,
      "suff": 9217,
      "wol": 9218,
      "infect": 9219,
      "leib": 9220,
      "verein": 9221,
      "nose": 9222,
      "acters": 9223,
      "senses": 9224,
      "agiert": 9225,
      "opy": 9226,
      "manage": 9227,
      "ctro": 9228,
      "Arthur": 9229,
      "vieler": 9230,
      "Teuf": 9231,
      "strength": 9232,
      "Früh": 9233,
      "scene": 9234,
      "Zeitalter": 9235,
      "chtigkeit": 9236,
      "Bras": 9237,
      "angeneh": 9238,
      "Howard": 9239,
      "Herren": 9240,
      "cyber": 9241,
      "corn": 9242,
      "möglichkeiten": 9243,
      "höre": 9244,
      "characters": 9245,
      "controlled": 9246,
      "ported": 9247,
      "Netzwerke": 9248,
      "transpar": 9249,
      "feedback": 9250,
      "übrig": 9251,
      "Helden": 9252,
      "Zweck": 9253,
      "beinahe": 9254,
      "pflanzen": 9255,
      "mäßig": 9256,
      "schrecklich": 9257,
      "Tausende": 9258,
      "kurzem": 9259,
      "Vögel": 9260,
      "increasingly": 9261,
      "Individuen": 9262,
      "Wüste": 9263,
      "deeper": 9264,
      "prepared": 9265,
      "mortality": 9266,
      "Bibliothe": 9267,
      "Please": 9268,
      "Jose": 9269,
      "Long": 9270,
      "Out": 9271,
      "Winter": 9272,
      "bum": 9273,
      "hur": 9274,
      "ville": 9275,
      "yesterday": 9276,
      "zheimer": 9277,
      "intim": 9278,
      "chap": 9279,
      "stir": 9280,
      "tomorrow": 9281,
      "verstand": 9282,
      "vermitteln": 9283,
      "heißen": 9284,
      "entstanden": 9285,
      "sowie": 9286,
      "hafte": 9287,
      "users": 9288,
      "forced": 9289,
      "gos": 9290,
      "spider": 9291,
      "önlichkeit": 9292,
      "iency": 9293,
      "ods": 9294,
      "upper": 9295,
      "prin": 9296,
      "klen": 9297,
      "klasse": 9298,
      "Verhältnis": 9299,
      "hierher": 9300,
      "string": 9301,
      "hinten": 9302,
      "underneath": 9303,
      "Zehn": 9304,
      "wäl": 9305,
      "ischem": 9306,
      "autonom": 9307,
      "medium": 9308,
      "Aufnahme": 9309,
      "Fehl": 9310,
      "calling": 9311,
      "Steven": 9312,
      "holfen": 9313,
      "radical": 9314,
      "technical": 9315,
      "picked": 9316,
      "Linien": 9317,
      "Freundin": 9318,
      "professor": 9319,
      "practical": 9320,
      "considered": 9321,
      "Nieder": 9322,
      "property": 9323,
      "Chemie": 9324,
      "introduced": 9325,
      "details": 9326,
      "nötig": 9327,
      "Philosoph": 9328,
      "Brown": 9329,
      "Tour": 9330,
      "Trotz": 9331,
      "cus": 9332,
      "flip": 9333,
      "hoffen": 9334,
      "nissen": 9335,
      "pin": 9336,
      "piano": 9337,
      "zing": 9338,
      "zlichen": 9339,
      "enable": 9340,
      "reaction": 9341,
      "eindeut": 9342,
      "sees": 9343,
      "diet": 9344,
      "dennoch": 9345,
      "soviel": 9346,
      "uries": 9347,
      "usern": 9348,
      "trinken": 9349,
      "steuern": 9350,
      "dot": 9351,
      "dogs": 9352,
      "command": 9353,
      "ula": 9354,
      "odd": 9355,
      "saved": 9356,
      "Beweise": 9357,
      "jeweil": 9358,
      "komm": 9359,
      "igem": 9360,
      "Rechte": 9361,
      "malen": 9362,
      "shel": 9363,
      "Ausmaß": 9364,
      "Unterhaltung": 9365,
      "simpl": 9366,
      "simplicity": 9367,
      "losion": 9368,
      "omente": 9369,
      "suchte": 9370,
      "Nachdem": 9371,
      "spectrum": 9372,
      "Febr": 9373,
      "Space": 9374,
      "bedro": 9375,
      "blocks": 9376,
      "Stuhl": 9377,
      "peln": 9378,
      "kilometers": 9379,
      "currently": 9380,
      "Mexiko": 9381,
      "Molekül": 9382,
      "kitchen": 9383,
      "honor": 9384,
      "definitely": 9385,
      "announ": 9386,
      "empty": 9387,
      "Riesen": 9388,
      "stupid": 9389,
      "Cent": 9390,
      "Dire": 9391,
      "Hu": 9392,
      "Jung": 9393,
      "Kev": 9394,
      "Lager": 9395,
      "Rio": 9396,
      "Roll": 9397,
      "bod": 9398,
      "sides": 9399,
      "ökonom": 9400,
      "chimp": 9401,
      "legend": 9402,
      "vergangen": 9403,
      "verteilt": 9404,
      "aufgebaut": 9405,
      "eless": 9406,
      "Wellen": 9407,
      "prop": 9408,
      "brid": 9409,
      "notes": 9410,
      "Lektion": 9411,
      "Alzheimer": 9412,
      "putation": 9413,
      "Grippe": 9414,
      "worldwide": 9415,
      "pregn": 9416,
      "gewinn": 9417,
      "folks": 9418,
      "losigkeit": 9419,
      "bereiten": 9420,
      "importance": 9421,
      "Zuhause": 9422,
      "Blatt": 9423,
      "possibilities": 9424,
      "distin": 9425,
      "operate": 9426,
      "burg": 9427,
      "somit": 9428,
      "verkauf": 9429,
      "arrived": 9430,
      "occas": 9431,
      "Verhaltens": 9432,
      "onym": 9433,
      "Sky": 9434,
      "unkle": 9435,
      "persönlichen": 9436,
      "züglich": 9437,
      "ynman": 9438,
[...]
